<pad>	0
<unk>	0
<s>	0
</s>	0
<0x00>	0
<0x01>	0
<0x02>	0
<0x03>	0
<0x04>	0
<0x05>	0
<0x06>	0
<0x07>	0
<0x08>	0
<0x09>	0
<0x0A>	0
<0x0B>	0
<0x0C>	0
<0x0D>	0
<0x0E>	0
<0x0F>	0
<0x10>	0
<0x11>	0
<0x12>	0
<0x13>	0
<0x14>	0
<0x15>	0
<0x16>	0
<0x17>	0
<0x18>	0
<0x19>	0
<0x1A>	0
<0x1B>	0
<0x1C>	0
<0x1D>	0
<0x1E>	0
<0x1F>	0
<0x20>	0
<0x21>	0
<0x22>	0
<0x23>	0
<0x24>	0
<0x25>	0
<0x26>	0
<0x27>	0
<0x28>	0
<0x29>	0
<0x2A>	0
<0x2B>	0
<0x2C>	0
<0x2D>	0
<0x2E>	0
<0x2F>	0
<0x30>	0
<0x31>	0
<0x32>	0
<0x33>	0
<0x34>	0
<0x35>	0
<0x36>	0
<0x37>	0
<0x38>	0
<0x39>	0
<0x3A>	0
<0x3B>	0
<0x3C>	0
<0x3D>	0
<0x3E>	0
<0x3F>	0
<0x40>	0
<0x41>	0
<0x42>	0
<0x43>	0
<0x44>	0
<0x45>	0
<0x46>	0
<0x47>	0
<0x48>	0
<0x49>	0
<0x4A>	0
<0x4B>	0
<0x4C>	0
<0x4D>	0
<0x4E>	0
<0x4F>	0
<0x50>	0
<0x51>	0
<0x52>	0
<0x53>	0
<0x54>	0
<0x55>	0
<0x56>	0
<0x57>	0
<0x58>	0
<0x59>	0
<0x5A>	0
<0x5B>	0
<0x5C>	0
<0x5D>	0
<0x5E>	0
<0x5F>	0
<0x60>	0
<0x61>	0
<0x62>	0
<0x63>	0
<0x64>	0
<0x65>	0
<0x66>	0
<0x67>	0
<0x68>	0
<0x69>	0
<0x6A>	0
<0x6B>	0
<0x6C>	0
<0x6D>	0
<0x6E>	0
<0x6F>	0
<0x70>	0
<0x71>	0
<0x72>	0
<0x73>	0
<0x74>	0
<0x75>	0
<0x76>	0
<0x77>	0
<0x78>	0
<0x79>	0
<0x7A>	0
<0x7B>	0
<0x7C>	0
<0x7D>	0
<0x7E>	0
<0x7F>	0
<0x80>	0
<0x81>	0
<0x82>	0
<0x83>	0
<0x84>	0
<0x85>	0
<0x86>	0
<0x87>	0
<0x88>	0
<0x89>	0
<0x8A>	0
<0x8B>	0
<0x8C>	0
<0x8D>	0
<0x8E>	0
<0x8F>	0
<0x90>	0
<0x91>	0
<0x92>	0
<0x93>	0
<0x94>	0
<0x95>	0
<0x96>	0
<0x97>	0
<0x98>	0
<0x99>	0
<0x9A>	0
<0x9B>	0
<0x9C>	0
<0x9D>	0
<0x9E>	0
<0x9F>	0
<0xA0>	0
<0xA1>	0
<0xA2>	0
<0xA3>	0
<0xA4>	0
<0xA5>	0
<0xA6>	0
<0xA7>	0
<0xA8>	0
<0xA9>	0
<0xAA>	0
<0xAB>	0
<0xAC>	0
<0xAD>	0
<0xAE>	0
<0xAF>	0
<0xB0>	0
<0xB1>	0
<0xB2>	0
<0xB3>	0
<0xB4>	0
<0xB5>	0
<0xB6>	0
<0xB7>	0
<0xB8>	0
<0xB9>	0
<0xBA>	0
<0xBB>	0
<0xBC>	0
<0xBD>	0
<0xBE>	0
<0xBF>	0
<0xC0>	0
<0xC1>	0
<0xC2>	0
<0xC3>	0
<0xC4>	0
<0xC5>	0
<0xC6>	0
<0xC7>	0
<0xC8>	0
<0xC9>	0
<0xCA>	0
<0xCB>	0
<0xCC>	0
<0xCD>	0
<0xCE>	0
<0xCF>	0
<0xD0>	0
<0xD1>	0
<0xD2>	0
<0xD3>	0
<0xD4>	0
<0xD5>	0
<0xD6>	0
<0xD7>	0
<0xD8>	0
<0xD9>	0
<0xDA>	0
<0xDB>	0
<0xDC>	0
<0xDD>	0
<0xDE>	0
<0xDF>	0
<0xE0>	0
<0xE1>	0
<0xE2>	0
<0xE3>	0
<0xE4>	0
<0xE5>	0
<0xE6>	0
<0xE7>	0
<0xE8>	0
<0xE9>	0
<0xEA>	0
<0xEB>	0
<0xEC>	0
<0xED>	0
<0xEE>	0
<0xEF>	0
<0xF0>	0
<0xF1>	0
<0xF2>	0
<0xF3>	0
<0xF4>	0
<0xF5>	0
<0xF6>	0
<0xF7>	0
<0xF8>	0
<0xF9>	0
<0xFA>	0
<0xFB>	0
<0xFC>	0
<0xFD>	0
<0xFE>	0
<0xFF>	0
ar	-0
an	-1
er	-2
in	-3
ın	-4
de	-5
▁b	-6
il	-7
▁k	-8
en	-9
▁y	-10
da	-11
al	-12
▁s	-13
ir	-14
▁g	-15
ma	-16
la	-17
lar	-18
el	-19
et	-20
ak	-21
ek	-22
▁o	-23
▁v	-24
un	-25
di	-26
▁t	-27
▁i	-28
es	-29
on	-30
ay	-31
or	-32
dı	-33
ler	-34
▁h	-35
iy	-36
at	-37
as	-38
▁B	-39
▁ve	-40
le	-41
ur	-42
ıl	-43
▁A	-44
aş	-45
li	-46
▁d	-47
ık	-48
ün	-49
ul	-50
▁ç	-51
ür	-52
▁bir	-53
▁de	-54
▁m	-55
im	-56
ap	-57
▁ol	-58
em	-59
▁a	-60
▁K	-61
st	-62
ında	-63
inde	-64
▁T	-65
ır	-66
▁M	-67
▁il	-68
▁ö	-69
dan	-70
▁S	-71
iz	-72
ey	-73
ti	-74
am	-75
iş	-76
ğı	-77
▁gö	-78
ını	-79
ki	-80
az	-81
▁da	-82
ini	-83
▁p	-84
▁e	-85
du	-86
ış	-87
üz	-88
ya	-89
ik	-90
▁al	-91
▁ar	-92
▁yap	-93
den	-94
ine	-95
lan	-96
um	-97
▁D	-98
it	-99
sı	-100
tı	-101
lı	-102
ce	-103
▁İ	-104
ah	-105
ab	-106
ol	-107
esi	-108
▁1	-109
▁ş	-110
inin	-111
▁E	-112
▁G	-113
ına	-114
▁2	-115
ları	-116
▁f	-117
▁iç	-118
yor	-119
▁H	-120
is	-121
ük	-122
▁gör	-123
ok	-124
ağ	-125
ği	-126
▁Y	-127
iler	-128
onu	-129
anı	-130
ının	-131
ül	-132
▁bu	-133
ev	-134
▁baş	-135
cak	-136
alar	-137
▁n	-138
af	-139
oğ	-140
ım	-141
ından	-142
▁kar	-143
▁et	-144
şt	-145
duğ	-146
▁C	-147
ec	-148
▁P	-149
eç	-150
leri	-151
▁u	-152
eler	-153
▁ver	-154
ön	-155
▁ön	-156
▁ile	-157
lu	-158
unu	-159
▁için	-160
▁"	-161
ta	-162
iye	-163
▁aç	-164
ut	-165
av	-166
üm	-167
▁r	-168
ez	-169
▁F	-170
ması	-171
len	-172
▁gel	-173
ad	-174
▁bel	-175
ildi	-176
lik	-177
ca	-178
▁bul	-179
dır	-180
▁an	-181
ürk	-182
te	-183
iyor	-184
▁son	-185
mak	-186
▁O	-187
öy	-188
ız	-189
erek	-190
ilm	-191
▁yıl	-192
▁z	-193
▁ay	-194
dir	-195
▁ed	-196
uk	-197
▁konu	-198
▁tar	-199
se	-200
▁olduğ	-201
lay	-202
▁yer	-203
mas	-204
▁di	-205
cı	-206
▁belir	-207
ip	-208
me	-209
ör	-210
ların	-211
uz	-212
▁sür	-213
ğini	-214
üş	-215
lık	-216
ra	-217
▁Türk	-218
nin	-219
op	-220
ili	-221
laş	-222
dığı	-223
om	-224
yon	-225
yla	-226
üy	-227
▁bil	-228
ılan	-229
larak	-230
ade	-231
ci	-232
▁Baş	-233
▁in	-234
tan	-235
▁20	-236
▁3	-237
▁R	-238
iyle	-239
▁açık	-240
▁çık	-241
▁yaş	-242
us	-243
ası	-244
ro	-245
öyle	-246
man	-247
▁kal	-248
▁bulun	-249
▁kay	-250
ib	-251
ye	-252
▁ma	-253
▁en	-254
▁geç	-255
▁değ	-256
▁olarak	-257
▁yar	-258
lama	-259
▁üz	-260
▁(	-261
ıs	-262
▁'	-263
▁or	-264
eri	-265
ecek	-266
ğını	-267
ken	-268
▁Ç	-269
▁Ö	-270
alış	-271
eş	-272
▁gün	-273
ilen	-274
ede	-275
▁üzer	-276
▁iş	-277
▁belirt	-278
ece	-279
▁ist	-280
asında	-281
edi	-282
▁N	-283
▁kul	-284
▁dah	-285
let	-286
▁yön	-287
▁kad	-288
▁çalış	-289
▁Ş	-290
eb	-291
ama	-292
cu	-293
ada	-294
▁Bu	-295
unda	-296
lü	-297
ist	-298
▁olan	-299
▁ne	-300
▁ise	-301
aya	-302
▁An	-303
iyet	-304
▁kur	-305
tır	-306
ru	-307
inden	-308
▁ek	-309
▁çok	-310
▁sor	-311
ıyor	-312
mış	-313
▁mil	-314
▁Türkiye	-315
eh	-316
eni	-317
uş	-318
ğr	-319
os	-320
alı	-321
malar	-322
▁daha	-323
üt	-324
▁kullan	-325
▁yüz	-326
▁bin	-327
eye	-328
▁L	-329
mek	-330
öz	-331
▁kiş	-332
▁etti	-333
▁karş	-334
arı	-335
lerin	-336
aç	-337
larını	-338
▁4	-339
ıldı	-340
anlı	-341
nın	-342
unun	-343
▁5	-344
▁taraf	-345
▁oy	-346
▁dev	-347
▁yak	-348
si	-349
kanı	-350
▁ken	-351
▁if	-352
▁uy	-353
ara	-354
öl	-355
ılı	-356
▁top	-357
▁göre	-358
▁dur	-359
▁sağ	-360
dür	-361
lerini	-362
esinde	-363
▁ifade	-364
lem	-365
▁söyle	-366
▁c	-367
tığı	-368
erk	-369
▁el	-370
ih	-371
men	-372
ans	-373
▁ilg	-374
imiz	-375
ibi	-376
▁kap	-377
ers	-378
▁Er	-379
dü	-380
00	-381
uşt	-382
▁say	-383
▁olduğunu	-384
▁“	-385
arak	-386
ark	-387
ladı	-388
▁gerek	-389
üyük	-390
▁U	-391
eli	-392
▁yan	-393
tir	-394
ter	-395
kin	-396
▁kat	-397
miş	-398
oli	-399
▁at	-400
▁201	-401
▁V	-402
▁neden	-403
▁mü	-404
▁gü	-405
▁düz	-406
der	-407
maya	-408
▁sonra	-409
lara	-410
▁ger	-411
bil	-412
oy	-413
▁dön	-414
una	-415
▁Ar	-416
▁tek	-417
▁yüzde	-418
▁ola	-419
▁hal	-420
diği	-421
▁has	-422
▁hak	-423
▁var	-424
▁sah	-425
▁öğr	-426
▁ü	-427
re	-428
▁dedi	-429
▁alın	-430
▁6	-431
▁düş	-432
▁ül	-433
▁AB	-434
▁kadar	-435
▁tarafından	-436
▁alan	-437
yan	-438
▁ilgili	-439
▁yapılan	-440
art	-441
enel	-442
isi	-443
yi	-444
met	-445
stan	-446
▁tak	-447
ep	-448
deki	-449
▁ilk	-450
▁Bak	-451
dından	-452
larının	-453
dığını	-454
ot	-455
aber	-456
▁sır	-457
acak	-458
▁olduğu	-459
ef	-460
▁Ü	-461
aat	-462
▁yol	-463
▁ak	-464
etir	-465
bul	-466
▁pro	-467
etim	-468
▁karşı	-469
▁getir	-470
elik	-471
▁do	-472
alan	-473
uy	-474
mız	-475
▁ardından	-476
▁böl	-477
çek	-478
▁yeni	-479
ic	-480
▁gir	-481
▁öz	-482
▁gibi	-483
▁doğ	-484
ac	-485
▁as	-486
yı	-487
tr	-488
ven	-489
ne	-490
▁hay	-491
''	-492
gu	-493
dım	-494
lat	-495
üks	-496
iv	-497
▁olma	-498
aman	-499
▁kon	-500
if	-501
mesi	-502
▁her	-503
▁Mü	-504
▁düzen	-505
▁''	-506
▁açıklama	-507
uştur	-508
larda	-509
▁Al	-510
ındaki	-511
▁arasında	-512
▁ülk	-513
gi	-514
san	-515
▁Başkanı	-516
▁söyledi	-517
▁ev	-518
lerinin	-519
tal	-520
▁göst	-521
ıla	-522
hur	-523
por	-524
ddi	-525
cağı	-526
kan	-527
▁oldu	-528
▁su	-529
ed	-530
oc	-531
umhur	-532
stanbul	-533
▁7	-534
▁çek	-535
▁büyük	-536
▁uz	-537
leş	-538
na	-539
azı	-540
ştir	-541
ünü	-542
▁ABD	-543
ğü	-544
▁devam	-545
▁tut	-546
▁öğren	-547
▁şek	-548
▁dün	-549
▁İstanbul	-550
sa	-551
ten	-552
oğlu	-553
▁ter	-554
rup	-555
▁ot	-556
▁alt	-557
▁gerçek	-558
▁göster	-559
▁poli	-560
▁ce	-561
▁Öz	-562
ka	-563
▁8	-564
▁söz	-565
▁göz	-566
tar	-567
▁sal	-568
▁sonu	-569
esine	-570
▁J	-571
▁li	-572
▁durum	-573
liği	-574
▁karar	-575
▁I	-576
▁ad	-577
üs	-578
ran	-579
ağı	-580
▁önem	-581
▁Cumhur	-582
▁konus	-583
üp	-584
ğer	-585
▁önce	-586
▁eden	-587
▁görev	-588
han	-589
▁yet	-590
hal	-591
."	-592
erkez	-593
ram	-594
nun	-595
▁seç	-596
▁Kur	-597
▁milyon	-598
asyon	-599
▁iki	-600
▁ort	-601
▁saat	-602
▁yaptığı	-603
nde	-604
▁İs	-605
▁ama	-606
▁bek	-607
▁Bir	-608
sız	-609
daki	-610
▁sev	-611
ilerin	-612
çe	-613
dar	-614
▁Z	-615
dık	-616
lerine	-617
eleri	-618
▁olay	-619
▁san	-620
aret	-621
lam	-622
ulu	-623
▁l	-624
eyi	-625
▁edildi	-626
larına	-627
▁gelen	-628
▁kaz	-629
▁zaman	-630
▁Av	-631
▁yaz	-632
iyat	-633
rg	-634
▁bölg	-635
▁ekip	-636
▁değer	-637
esinin	-638
lere	-639
ısı	-640
▁üzerine	-641
▁Ay	-642
dış	-643
▁kendi	-644
tık	-645
lendir	-646
▁10	-647
▁es	-648
▁öl	-649
▁İn	-650
▁yüks	-651
gün	-652
duğu	-653
enin	-654
ileri	-655
▁ayr	-656
oz	-657
anlığı	-658
▁Mah	-659
▁haber	-660
▁Ak	-661
▁iliş	-662
▁özel	-663
▁sav	-664
ket	-665
baş	-666
lerde	-667
▁kayde	-668
▁diye	-669
iç	-670
▁par	-671
leştir	-672
dik	-673
kem	-674
▁görüş	-675
ünde	-676
▁duy	-677
▁Genel	-678
▁ser	-679
ocuk	-680
bak	-681
▁tarih	-682
raf	-683
▁19	-684
▁tes	-685
larında	-686
atan	-687
▁den	-688
bir	-689
indeki	-690
▁güven	-691
doğ	-692
▁yay	-693
▁kişi	-694
layan	-695
id	-696
▁maç	-697
nı	-698
▁bulunan	-699
▁bilg	-700
▁hayat	-701
▁ada	-702
▁bas	-703
▁dış	-704
yen	-705
▁dönem	-706
tik	-707
▁har	-708
▁haf	-709
▁kayb	-710
▁ür	-711
..	-712
esini	-713
▁önemli	-714
ıp	-715
diyor	-716
▁der	-717
▁saldır	-718
rak	-719
▁iddi	-720
▁haz	-721
ğit	-722
ulan	-723
mıştı	-724
▁Mil	-725
▁Par	-726
masına	-727
abil	-728
ub	-729
▁9	-730
▁oyun	-731
ilmesi	-732
▁değil	-733
▁nedeniyle	-734
▁ih	-735
▁kam	-736
▁dest	-737
▁is	-738
▁az	-739
▁bağ	-740
▁değiş	-741
▁insan	-742
▁iz	-743
▁taş	-744
masını	-745
▁çıkar	-746
▁bak	-747
▁hakk	-748
▁Müdür	-749
▁vur	-750
cel	-751
▁birlik	-752
iyas	-753
lanan	-754
▁konuşt	-755
▁açıklamada	-756
lerinde	-757
ig	-758
olo	-759
anın	-760
lenen	-761
uv	-762
ile	-763
ılık	-764
▁biz	-765
▁on	-766
diğini	-767
rgüt	-768
kil	-769
per	-770
aştır	-771
uh	-772
▁hazır	-773
ılması	-774
dur	-775
▁fark	-776
▁dav	-777
▁lir	-778
▁tem	-779
▁konuştu	-780
▁te	-781
ekt	-782
▁İl	-783
▁içinde	-784
ğitim	-785
azet	-786
▁geliş	-787
eyen	-788
▁bildir	-789
▁sat	-790
liğ	-791
larla	-792
uyor	-793
ov	-794
▁Kar	-795
▁suç	-796
up	-797
alık	-798
▁polis	-799
▁iyi	-800
▁çocuk	-801
ehir	-802
▁Bel	-803
sam	-804
▁hem	-805
azla	-806
ağını	-807
maz	-808
▁kor	-809
▁terör	-810
▁ede	-811
▁tüm	-812
ivers	-813
▁hav	-814
istem	-815
sel	-816
bol	-817
cek	-818
▁im	-819
iversit	-820
▁cez	-821
üyor	-822
▁konuş	-823
▁fazla	-824
▁Has	-825
lardan	-826
daş	-827
üküm	-828
▁200	-829
ilde	-830
▁ben	-831
▁dik	-832
▁zor	-833
▁gen	-834
ıcı	-835
▁-	-836
kat	-837
▁aş	-838
▁eş	-839
▁ask	-840
yal	-841
▁ediyor	-842
eti	-843
masının	-844
ali	-845
alt	-846
oloj	-847
cü	-848
▁ok	-849
▁yür	-850
ült	-851
mir	-852
ust	-853
▁ağ	-854
üne	-855
▁şekilde	-856
doğan	-857
ayı	-858
siz	-859
▁kes	-860
▁ko	-861
iliyor	-862
▁birlikte	-863
▁art	-864
ıda	-865
lantı	-866
▁çalışmalar	-867
manın	-868
▁tama	-869
▁açıkla	-870
▁dikkat	-871
▁kapsam	-872
▁verdi	-873
dav	-874
▁geçen	-875
▁15	-876
▁yok	-877
▁aynı	-878
▁em	-879
▁ilç	-880
▁olmak	-881
▁örgüt	-882
▁üzere	-883
▁hat	-884
ırak	-885
▁kan	-886
▁mes	-887
eceğini	-888
anan	-889
▁yaklaş	-890
▁W	-891
eceği	-892
bar	-893
kada	-894
▁yönelik	-895
irket	-896
▁diğer	-897
iyon	-898
est	-899
▁üst	-900
luk	-901
nda	-902
▁yanı	-903
▁destek	-904
meye	-905
▁kab	-906
atandaş	-907
cade	-908
▁bırak	-909
▁ilişkin	-910
▁Ün	-911
▁sahip	-912
▁bazı	-913
gil	-914
imi	-915
▁Kon	-916
▁edilen	-917
ob	-918
▁geldi	-919
▁kr	-920
▁geçir	-921
▁Erdoğan	-922
tti	-923
▁yas	-924
▁yaptı	-925
utbol	-926
meler	-927
▁merkez	-928
rupa	-929
▁sistem	-930
tü	-931
ret	-932
ülen	-933
mişti	-934
▁ulaş	-935
olu	-936
▁Yar	-937
▁sağlık	-938
▁Dev	-939
ilik	-940
gram	-941
ilecek	-942
mer	-943
▁kıs	-944
▁takım	-945
kara	-946
▁kö	-947
lığı	-948
taş	-949
▁üy	-950
▁yapan	-951
▁er	-952
atı	-953
▁tekn	-954
▁gi	-955
▁olacak	-956
istan	-957
▁yapıl	-958
▁gerçekleştir	-959
ilah	-960
▁Avrupa	-961
gan	-962
▁Başbak	-963
HP	-964
mi	-965
lüğü	-966
▁bugün	-967
▁kaldır	-968
▁değerlendir	-969
▁tel	-970
▁yakın	-971
▁istedi	-972
adece	-973
▁tedav	-974
ing	-975
ilmiş	-976
▁gazet	-977
▁kim	-978
▁hüküm	-979
▁Em	-980
▁şey	-981
▁Parti	-982
▁Tr	-983
eden	-984
▁Yıl	-985
eğ	-986
▁pay	-987
ılacak	-988
▁12	-989
▁11	-990
üldü	-991
landı	-992
▁yılında	-993
▁hakkında	-994
asar	-995
▁Pro	-996
▁Ankara	-997
▁gön	-998
▁içer	-999
▁ortaya	-1000
ıt	-1001
▁kaç	-1002
▁veya	-1003
▁Kom	-1004
perasyon	-1005
ank	-1006
▁En	-1007
ünün	-1008
likle	-1009
ener	-1010
ge	-1011
▁uç	-1012
▁kez	-1013
▁vatandaş	-1014
lah	-1015
undan	-1016
▁sık	-1017
▁konusunda	-1018
▁belirtildi	-1019
▁Sur	-1020
▁yardım	-1021
▁belirtti	-1022
▁film	-1023
acağı	-1024
vek	-1025
▁kazan	-1026
▁güç	-1027
▁tal	-1028
ektör	-1029
▁yerine	-1030
çi	-1031
laya	-1032
▁aldı	-1033
▁seçim	-1034
vet	-1035
▁Rus	-1036
▁şirket	-1037
iniz	-1038
▁mah	-1039
osyal	-1040
▁kadın	-1041
▁harek	-1042
▁Cumhuriyet	-1043
▁Cumhurbaş	-1044
▁‘	-1045
yar	-1046
▁ancak	-1047
▁lira	-1048
ğimiz	-1049
▁belirten	-1050
▁Dr	-1051
▁anlaş	-1052
▁Or	-1053
ilere	-1054
▁uygu	-1055
▁tutuk	-1056
▁Gün	-1057
üph	-1058
▁git	-1059
tiğini	-1060
),	-1061
▁süre	-1062
uma	-1063
▁ci	-1064
▁araç	-1065
rans	-1066
▁günü	-1067
▁hastan	-1068
izmet	-1069
üşt	-1070
vur	-1071
aları	-1072
yonu	-1073
▁met	-1074
▁çev	-1075
▁fa	-1076
niyet	-1077
▁üzerinde	-1078
okt	-1079
▁tamam	-1080
▁Bur	-1081
larından	-1082
ımı	-1083
ilir	-1084
trol	-1085
▁yüksek	-1086
unları	-1087
▁incel	-1088
▁sadece	-1089
▁yönetim	-1090
▁bulunduğu	-1091
▁kil	-1092
▁daki	-1093
▁Devlet	-1094
▁işlem	-1095
▁şöyle	-1096
▁Beledi	-1097
net	-1098
▁şu	-1099
▁genel	-1100
▁uyg	-1101
▁yat	-1102
▁tür	-1103
▁yaralan	-1104
eme	-1105
usu	-1106
ğın	-1107
▁ya	-1108
▁üç	-1109
▁tah	-1110
ri	-1111
▁kabul	-1112
▁kurul	-1113
van	-1114
▁As	-1115
sini	-1116
esiyle	-1117
▁kişinin	-1118
▁soruştur	-1119
sun	-1120
▁doğru	-1121
▁kapsamında	-1122
▁sonuç	-1123
▁Üniversit	-1124
üb	-1125
▁paylaş	-1126
▁Dem	-1127
tin	-1128
▁toplantı	-1129
▁konusu	-1130
▁bulundu	-1131
▁yaklaşık	-1132
▁ele	-1133
ımız	-1134
cadele	-1135
▁başladı	-1136
▁0	-1137
▁hiç	-1138
ök	-1139
▁çıktı	-1140
▁araştır	-1141
-1	-1142
edef	-1143
▁proj	-1144
eydan	-1145
▁hast	-1146
▁gönder	-1147
orm	-1148
ınır	-1149
kinci	-1150
altına	-1151
▁boy	-1152
obil	-1153
▁yönet	-1154
▁Büyük	-1155
lerinden	-1156
▁ün	-1157
▁bur	-1158
▁kontrol	-1159
apor	-1160
▁ait	-1161
▁tanı	-1162
▁öğrenc	-1163
cağını	-1164
▁hafta	-1165
▁ey	-1166
▁başvur	-1167
isinde	-1168
▁operasyon	-1169
gel	-1170
▁Mahkem	-1171
▁başlat	-1172
▁olması	-1173
▁katıl	-1174
▁silah	-1175
pit	-1176
mada	-1177
bilir	-1178
▁yaşındaki	-1179
▁İngil	-1180
ıca	-1181
ayan	-1182
mayı	-1183
▁tur	-1184
▁milyar	-1185
eki	-1186
ize	-1187
▁oyn	-1188
amp	-1189
onom	-1190
▁Bakanlığı	-1191
asına	-1192
▁saldırı	-1193
▁hedef	-1194
▁güvenlik	-1195
las	-1196
endi	-1197
▁dolar	-1198
▁eğitim	-1199
kü	-1200
▁Müdürlüğü	-1201
alat	-1202
▁sonr	-1203
tiği	-1204
20	-1205
▁plan	-1206
lerden	-1207
▁Ağ	-1208
▁isim	-1209
▁Dün	-1210
▁Ancak	-1211
nak	-1212
tak	-1213
▁Bakanı	-1214
▁hizmet	-1215
arası	-1216
lük	-1217
▁Başbakan	-1218
çı	-1219
letvek	-1220
oş	-1221
üç	-1222
laşt	-1223
▁Ek	-1224
▁Suriye	-1225
▁fiyat	-1226
▁şüph	-1227
▁pu	-1228
ğına	-1229
kadaş	-1230
lerle	-1231
aliyet	-1232
▁Cumhurbaşkanı	-1233
min	-1234
▁kaybet	-1235
larımız	-1236
▁yüksel	-1237
▁kaydetti	-1238
▁gözaltına	-1239
ğu	-1240
▁Hastan	-1241
▁futbol	-1242
▁ekipleri	-1243
can	-1244
▁giriş	-1245
▁tespit	-1246
▁13	-1247
▁eski	-1248
lus	-1249
▁tab	-1250
▁kend	-1251
▁hareket	-1252
ide	-1253
▁ik	-1254
leme	-1255
▁sınır	-1256
gı	-1257
suz	-1258
uştu	-1259
▁sı	-1260
▁sez	-1261
▁oluştur	-1262
rar	-1263
▁hes	-1264
urt	-1265
unuyor	-1266
▁Merkez	-1267
üsü	-1268
▁ağır	-1269
▁görün	-1270
▁Tem	-1271
▁çıkan	-1272
lo	-1273
▁av	-1274
▁müda	-1275
▁iti	-1276
maları	-1277
fer	-1278
▁Ben	-1279
.00	-1280
duğunu	-1281
▁beklen	-1282
dül	-1283
▁30	-1284
▁Es	-1285
ley	-1286
▁ki	-1287
▁program	-1288
bah	-1289
lak	-1290
▁bağlı	-1291
okr	-1292
ğünü	-1293
▁kız	-1294
▁kullandı	-1295
kı	-1296
▁AK	-1297
eceğ	-1298
▁aday	-1299
elerin	-1300
▁sürdür	-1301
▁Üniversitesi	-1302
ala	-1303
▁CHP	-1304
▁oluş	-1305
▁düşün	-1306
▁oyuncu	-1307
ütün	-1308
▁Doğ	-1309
ternet	-1310
▁14	-1311
ika	-1312
▁dile	-1313
iyoruz	-1314
etin	-1315
▁siyas	-1316
▁uzun	-1317
▁grup	-1318
ısında	-1319
▁arkadaş	-1320
▁müdahal	-1321
ahat	-1322
▁Tek	-1323
▁asker	-1324
▁çar	-1325
▁alınan	-1326
▁kararı	-1327
pr	-1328
oğun	-1329
▁hız	-1330
mem	-1331
▁taşı	-1332
ınav	-1333
▁16	-1334
▁vurgu	-1335
▁hava	-1336
▁dünya	-1337
rub	-1338
▁önc	-1339
lararası	-1340
▁iht	-1341
▁müz	-1342
det	-1343
▁Mar	-1344
▁mad	-1345
▁duyur	-1346
▁İş	-1347
▁am	-1348
▁sen	-1349
▁oran	-1350
▁Alman	-1351
▁sırasında	-1352
▁Biz	-1353
lesi	-1354
▁ziy	-1355
fa	-1356
▁ettiği	-1357
▁Hak	-1358
▁meydan	-1359
ırken	-1360
...	-1361
▁Beş	-1362
▁bit	-1363
tiv	-1364
malı	-1365
ch	-1366
uvvet	-1367
▁yayın	-1368
▁yaşam	-1369
rail	-1370
▁yürüt	-1371
▁mut	-1372
▁ikinci	-1373
▁25	-1374
ümüz	-1375
▁ail	-1376
▁gol	-1377
▁mev	-1378
oğraf	-1379
ğında	-1380
▁hayatını	-1381
▁telef	-1382
▁verildi	-1383
▁Meh	-1384
▁çağ	-1385
▁kır	-1386
▁savun	-1387
▁Gü	-1388
▁teh	-1389
laştır	-1390
▁Su	-1391
▁18	-1392
eci	-1393
▁teş	-1394
▁çöz	-1395
▁kent	-1396
ver	-1397
çok	-1398
▁Şub	-1399
▁İz	-1400
▁farklı	-1401
acı	-1402
▁biri	-1403
ladığı	-1404
▁puan	-1405
▁madde	-1406
▁belirterek	-1407
br	-1408
▁Mahal	-1409
▁sezon	-1410
üc	-1411
pan	-1412
▁Bay	-1413
▁Kan	-1414
alarında	-1415
dem	-1416
ılığı	-1417
Bu	-1418
aj	-1419
sil	-1420
▁mu	-1421
▁sun	-1422
▁devlet	-1423
▁At	-1424
▁Hav	-1425
umu	-1426
▁Mehmet	-1427
▁mo	-1428
▁otom	-1429
umlu	-1430
▁Sav	-1431
lim	-1432
▁San	-1433
cısı	-1434
▁imz	-1435
▁sosyal	-1436
▁internet	-1437
▁soru	-1438
▁düzenlenen	-1439
▁Ko	-1440
▁Hal	-1441
▁altında	-1442
▁belirlen	-1443
▁dolay	-1444
masında	-1445
gın	-1446
tür	-1447
larıyla	-1448
▁ziyaret	-1449
▁olduk	-1450
lüğ	-1451
spor	-1452
üştü	-1453
▁Haz	-1454
▁aldığı	-1455
▁mahkem	-1456
eniz	-1457
işleri	-1458
ıldığı	-1459
ari	-1460
▁Top	-1461
▁çalışan	-1462
kanlığı	-1463
▁alındı	-1464
ça	-1465
ağış	-1466
▁Bil	-1467
▁olur	-1468
esinden	-1469
▁mücadele	-1470
▁Ali	-1471
▁Kor	-1472
ledi	-1473
0'	-1474
▁etk	-1475
▁kom	-1476
landır	-1477
▁17	-1478
▁Ab	-1479
ğının	-1480
▁geri	-1481
▁Rusya	-1482
▁yeniden	-1483
aların	-1484
▁Milli	-1485
▁İsrail	-1486
▁yaşa	-1487
otoğraf	-1488
▁Kurulu	-1489
▁İran	-1490
▁Başkan	-1491
▁ekonom	-1492
▁hey	-1493
▁rak	-1494
gin	-1495
ayet	-1496
iktaş	-1497
ğa	-1498
muş	-1499
bahçe	-1500
tu	-1501
▁Böl	-1502
▁rağ	-1503
▁genç	-1504
yas	-1505
üçük	-1506
▁Poli	-1507
▁sevk	-1508
▁bölüm	-1509
▁ayında	-1510
▁yetkil	-1511
▁rağmen	-1512
▁çevr	-1513
talık	-1514
▁bunun	-1515
sine	-1516
iyorum	-1517
▁yaşan	-1518
▁Emniyet	-1519
şam	-1520
▁kı	-1521
▁El	-1522
uzey	-1523
▁res	-1524
▁şekl	-1525
▁bulunuyor	-1526
din	-1527
▁Ah	-1528
▁Cez	-1529
▁böyle	-1530
▁geçti	-1531
▁sorun	-1532
▁Ey	-1533
▁tük	-1534
sinin	-1535
ana	-1536
▁başka	-1537
▁değişik	-1538
şehir	-1539
▁Tur	-1540
makta	-1541
▁men	-1542
▁kamu	-1543
▁basın	-1544
▁Yön	-1545
▁itibar	-1546
▁sonucu	-1547
ocu	-1548
▁sit	-1549
leyen	-1550
▁etmek	-1551
▁çalışma	-1552
▁Ser	-1553
▁sırada	-1554
▁,	-1555
▁bar	-1556
talya	-1557
▁yapılacak	-1558
▁ber	-1559
▁başar	-1560
▁rapor	-1561
▁Uz	-1562
▁tart	-1563
üzel	-1564
▁halk	-1565
leriyle	-1566
muz	-1567
▁Olay	-1568
▁TL	-1569
▁Sağ	-1570
isyon	-1571
▁iddia	-1572
ırım	-1573
▁sab	-1574
▁tartış	-1575
▁para	-1576
▁Fener	-1577
▁satış	-1578
▁kaynak	-1579
▁meydana	-1580
▁Mahallesi	-1581
lum	-1582
ültür	-1583
▁toplam	-1584
▁otomobil	-1585
iyi	-1586
▁seb	-1587
▁kayded	-1588
▁Beşiktaş	-1589
deş	-1590
▁kısa	-1591
▁21	-1592
tere	-1593
▁fotoğraf	-1594
▁mem	-1595
▁Prof	-1596
▁anla	-1597
▁birçok	-1598
azar	-1599
▁dir	-1600
asaray	-1601
▁ederek	-1602
alatasaray	-1603
▁med	-1604
▁gerektiğini	-1605
▁şeh	-1606
mey	-1607
▁la	-1608
▁sey	-1609
ilerinin	-1610
tığını	-1611
▁Amer	-1612
▁açıkladı	-1613
ıldığını	-1614
▁ul	-1615
▁bor	-1616
ecli	-1617
▁koy	-1618
elere	-1619
▁üret	-1620
▁bilin	-1621
▁gerçekleş	-1622
og	-1623
▁öne	-1624
iran	-1625
lül	-1626
▁sıra	-1627
▁verdiği	-1628
madı	-1629
▁tan	-1630
▁veren	-1631
▁Aç	-1632
▁aktar	-1633
▁talep	-1634
▁bey	-1635
mı	-1636
ılıç	-1637
▁yen	-1638
▁zar	-1639
▁çarp	-1640
elerde	-1641
▁götür	-1642
▁Son	-1643
▁Ulus	-1644
▁Eğitim	-1645
üf	-1646
jan	-1647
ğine	-1648
ent	-1649
esel	-1650
unca	-1651
▁sınav	-1652
▁telefon	-1653
▁Galatasaray	-1654
aha	-1655
asını	-1656
▁Ceza	-1657
oloji	-1658
ampiyon	-1659
▁hükümet	-1660
▁Dünya	-1661
▁artır	-1662
▁olmadığını	-1663
tem	-1664
▁Ada	-1665
▁pat	-1666
▁kans	-1667
▁şunları	-1668
▁okul	-1669
esin	-1670
▁mak	-1671
▁edilm	-1672
▁halinde	-1673
sal	-1674
asıl	-1675
imdi	-1676
▁Söz	-1677
▁Demir	-1678
▁artış	-1679
eği	-1680
▁tep	-1681
▁anlat	-1682
▁soruşturma	-1683
▁ateş	-1684
enk	-1685
▁Ad	-1686
▁Sal	-1687
ekli	-1688
inci	-1689
▁etki	-1690
▁kurum	-1691
▁Fenerbahçe	-1692
▁Bar	-1693
▁muh	-1694
ünden	-1695
▁takip	-1696
▁öldür	-1697
▁adlı	-1698
▁bütün	-1699
aba	-1700
ton	-1701
▁100	-1702
▁kit	-1703
▁Özel	-1704
asının	-1705
▁İngiltere	-1706
azi	-1707
enüz	-1708
yesi	-1709
▁büy	-1710
▁ulus	-1711
▁hiçbir	-1712
▁faaliyet	-1713
▁dar	-1714
▁Kılıç	-1715
▁sanat	-1716
▁geliştir	-1717
afa	-1718
efer	-1719
▁Kas	-1720
▁arac	-1721
▁bunu	-1722
ba	-1723
etmen	-1724
▁yanıt	-1725
▁karşılaş	-1726
of	-1727
ören	-1728
▁Kay	-1729
muştu	-1730
▁üzerinden	-1731
mesini	-1732
▁Ter	-1733
▁yoğun	-1734
▁ilçesinde	-1735
▁24	-1736
▁orta	-1737
sin	-1738
tep	-1739
▁Tak	-1740
▁şeklinde	-1741
▁üc	-1742
izi	-1743
teki	-1744
▁Yeni	-1745
▁ölüm	-1746
▁engel	-1747
letvekili	-1748
aban	-1749
ump	-1750
taki	-1751
▁Dış	-1752
▁din	-1753
düğü	-1754
ser	-1755
▁Do	-1756
tedir	-1757
▁eylem	-1758
▁rahat	-1759
▁teknik	-1760
eşit	-1761
▁benz	-1762
ift	-1763
yanın	-1764
▁ihtiy	-1765
eg	-1766
lif	-1767
mez	-1768
üncü	-1769
▁Bakan	-1770
▁amacı	-1771
ınız	-1772
▁cin	-1773
▁Der	-1774
▁Sar	-1775
▁sonrası	-1776
▁verilen	-1777
umuz	-1778
▁hap	-1779
isinin	-1780
▁İzmir	-1781
ilerine	-1782
▁öğrenildi	-1783
▁1.	-1784
▁dil	-1785
▁Açık	-1786
▁sayıda	-1787
mar	-1788
▁mağ	-1789
▁ris	-1790
▁yana	-1791
▁bilgi	-1792
▁Hastanesi	-1793
▁bildirildi	-1794
cih	-1795
▁Irak	-1796
▁henüz	-1797
▁Araştır	-1798
-2	-1799
▁piyas	-1800
bet	-1801
▁Muh	-1802
▁sayı	-1803
▁içerisinde	-1804
elen	-1805
▁traf	-1806
▁edecek	-1807
od	-1808
ova	-1809
▁gelir	-1810
lerimiz	-1811
▁Yardım	-1812
▁düzenlen	-1813
▁mal	-1814
ucu	-1815
▁istem	-1816
▁yaşanan	-1817
▁fin	-1818
▁ses	-1819
▁per	-1820
yorum	-1821
▁ceza	-1822
layacak	-1823
▁yaptık	-1824
elerinin	-1825
ıntı	-1826
▁Dav	-1827
estiv	-1828
▁ürün	-1829
▁başkan	-1830
etr	-1831
▁May	-1832
ransa	-1833
▁savaş	-1834
▁gelecek	-1835
KK	-1836
▁fır	-1837
abilir	-1838
▁öde	-1839
▁Mart	-1840
▁anda	-1841
▁Bunun	-1842
▁Güven	-1843
▁dışında	-1844
▁Har	-1845
▁Tay	-1846
▁kas	-1847
▁yakalan	-1848
▁23	-1849
▁bay	-1850
▁tedavi	-1851
lin	-1852
akat	-1853
▁kol	-1854
▁dair	-1855
ceki	-1856
▁grub	-1857
▁işaret	-1858
ort	-1859
▁Kad	-1860
▁Yap	-1861
ılmış	-1862
▁Deniz	-1863
▁temsil	-1864
▁Almanya	-1865
▁beraber	-1866
cil	-1867
▁Ne	-1868
▁sig	-1869
hangi	-1870
▁adım	-1871
▁lider	-1872
meyi	-1873
▁ülke	-1874
▁altına	-1875
uro	-1876
uluk	-1877
▁Bey	-1878
erson	-1879
▁inş	-1880
he	-1881
dın	-1882
eder	-1883
ektr	-1884
▁çocu	-1885
▁siyasi	-1886
duk	-1887
tif	-1888
medi	-1889
▁Ahmet	-1890
▁askeri	-1891
▁Haziran	-1892
▁Mahkemesi	-1893
be	-1894
▁Trump	-1895
▁sürec	-1896
▁Fransa	-1897
▁his	-1898
▁söy	-1899
▁ortak	-1900
▁kav	-1901
ici	-1902
ayas	-1903
▁Her	-1904
▁Tar	-1905
do	-1906
▁kalan	-1907
▁Kaz	-1908
▁medya	-1909
▁organ	-1910
▁tekrar	-1911
▁Geç	-1912
ildiği	-1913
▁ücret	-1914
▁uygulan	-1915
ale	-1916
may	-1917
amaz	-1918
ebilir	-1919
▁mer	-1920
▁Kara	-1921
▁ödül	-1922
▁artık	-1923
ğinde	-1924
mesine	-1925
▁nasıl	-1926
▁yayım	-1927
▁çeşit	-1928
▁Sağlık	-1929
▁burada	-1930
▁uygula	-1931
su	-1932
madan	-1933
▁yandan	-1934
,5	-1935
ren	-1936
ırı	-1937
▁On	-1938
▁bile	-1939
▁part	-1940
▁kesin	-1941
▁başarı	-1942
▁Belediye	-1943
▁Yılmaz	-1944
▁dolayı	-1945
▁amacıyla	-1946
▁22	-1947
ilmek	-1948
asyonu	-1949
▁Eylül	-1950
▁indir	-1951
▁trans	-1952
▁Temmuz	-1953
▁başlayan	-1954
tay	-1955
zon	-1956
▁sektör	-1957
▁yapmak	-1958
onya	-1959
okrat	-1960
▁otur	-1961
▁alıyor	-1962
▁nedenle	-1963
▁ara	-1964
▁köy	-1965
manı	-1966
▁çiz	-1967
▁avuk	-1968
▁kayıt	-1969
lanması	-1970
▁tercih	-1971
▁isteyen	-1972
sik	-1973
ula	-1974
best	-1975
▁etkin	-1976
erj	-1977
for	-1978
ime	-1979
▁tat	-1980
▁yağ	-1981
▁itibaren	-1982
isan	-1983
edeki	-1984
▁kapat	-1985
▁yazılı	-1986
▁Ayr	-1987
▁sok	-1988
▁seviy	-1989
▁önceki	-1990
▁Çin	-1991
adolu	-1992
dırım	-1993
ber	-1994
▁Ev	-1995
lek	-1996
▁Li	-1997
kenin	-1998
▁sanık	-1999
▁uzak	-2000
▁Komut	-2001
▁ayrıca	-2002
adde	-2003
▁Hol	-2004
▁fir	-2005
▁Polis	-2006
▁güzel	-2007
ısından	-2008
▁kanser	-2009
sav	-2010
▁Gök	-2011
▁Spor	-2012
▁parti	-2013
▁örgütü	-2014
ani	-2015
▁Ama	-2016
lıyor	-2017
menin	-2018
▁Ocak	-2019
▁Mecli	-2020
▁haberine	-2021
ami	-2022
▁it	-2023
▁ör	-2024
▁Diy	-2025
▁oda	-2026
abzon	-2027
▁öner	-2028
▁bizim	-2029
▁boyunca	-2030
▁bildirdi	-2031
▁özellikle	-2032
▁Af	-2033
▁Ön	-2034
ıyla	-2035
▁durumu	-2036
▁ifadelerini	-2037
dum	-2038
son	-2039
▁Dur	-2040
▁Ekim	-2041
abancı	-2042
ilerek	-2043
▁Dışişleri	-2044
▁50	-2045
ünkü	-2046
▁yem	-2047
▁çağr	-2048
▁sayısı	-2049
▁gal	-2050
▁yatırım	-2051
bay	-2052
▁Lig	-2053
▁bah	-2054
▁elde	-2055
▁anlam	-2056
▁zarar	-2057
▁teklif	-2058
ni	-2059
▁Hay	-2060
▁dem	-2061
oktor	-2062
▁dönemde	-2063
▁arasındaki	-2064
mayan	-2065
▁mode	-2066
▁herhangi	-2067
▁devr	-2068
alarda	-2069
▁önünde	-2070
▁Anadolu	-2071
▁üniversit	-2072
▁sonunda	-2073
ola	-2074
ukuk	-2075
▁yine	-2076
ılıyor	-2077
▁günde	-2078
▁küçük	-2079
▁yıllık	-2080
▁Os	-2081
işim	-2082
▁rek	-2083
▁gazetec	-2084
ayın	-2085
▁Kul	-2086
▁boz	-2087
▁edil	-2088
▁adına	-2089
▁kardeş	-2090
▁Br	-2091
▁Gen	-2092
▁boş	-2093
siyon	-2094
▁Yüks	-2095
▁nokt	-2096
ET	-2097
▁Ch	-2098
emiz	-2099
▁erk	-2100
▁giy	-2101
▁amaç	-2102
▁kilom	-2103
▁getirdi	-2104
▁kuruluş	-2105
dıklarını	-2106
DP	-2107
▁Must	-2108
▁Merkezi	-2109
▁PKK	-2110
▁akşam	-2111
▁etkil	-2112
ebek	-2113
nden	-2114
▁Sel	-2115
▁diz	-2116
▁izin	-2117
erli	-2118
▁Kal	-2119
▁hatır	-2120
dıkları	-2121
▁derece	-2122
▁serbest	-2123
▁hale	-2124
▁geniş	-2125
▁ettiğini	-2126
▁bekleniyor	-2127
▁kaydedildi	-2128
ince	-2129
cılık	-2130
▁tasar	-2131
▁araya	-2132
▁duruş	-2133
▁Yıldırım	-2134
▁İlk	-2135
lemek	-2136
ullah	-2137
▁resmi	-2138
▁değiştir	-2139
.'	-2140
liy	-2141
uldu	-2142
▁ann	-2143
▁tam	-2144
▁2016	-2145
lamada	-2146
ilerini	-2147
▁Ayrıca	-2148
▁Mustafa	-2149
▁söyleyen	-2150
▁Mur	-2151
▁yurt	-2152
▁bilim	-2153
▁ciddi	-2154
▁uygun	-2155
to	-2156
▁gece	-2157
▁list	-2158
▁risk	-2159
eliyat	-2160
ısının	-2161
mesinin	-2162
diklerini	-2163
deniz	-2164
▁doğal	-2165
▁görül	-2166
elerinde	-2167
▁bilgiye	-2168
▁hastalık	-2169
ga	-2170
altı	-2171
lediği	-2172
ündeki	-2173
acağını	-2174
▁uluslararası	-2175
sat	-2176
▁hep	-2177
▁ettik	-2178
▁gerekç	-2179
.”	-2180
▁Man	-2181
▁bun	-2182
▁for	-2183
▁belg	-2184
▁sahibi	-2185
▁zamanda	-2186
▁uçak	-2187
▁edece	-2188
▁yarış	-2189
▁yolcu	-2190
▁Gör	-2191
▁çat	-2192
▁Daha	-2193
▁Mayıs	-2194
▁mesaj	-2195
daroğlu	-2196
maktadır	-2197
▁Birliği	-2198
▁Trabzon	-2199
▁getiren	-2200
tım	-2201
▁İç	-2202
ecep	-2203
unuz	-2204
▁dör	-2205
▁net	-2206
lamaya	-2207
▁person	-2208
ildiğini	-2209
▁gerekiyor	-2210
kın	-2211
▁ip	-2212
erken	-2213
ustos	-2214
▁Güney	-2215
▁durdur	-2216
201	-2217
anak	-2218
▁ileri	-2219
▁ilişk	-2220
▁yaşayan	-2221
yip	-2222
alet	-2223
▁yor	-2224
▁terörist	-2225
kün	-2226
▁2.	-2227
▁dakika	-2228
▁sözleş	-2229
▁futbolcu	-2230
▁oyna	-2231
▁deniz	-2232
▁hapis	-2233
▁hesab	-2234
▁ediliyor	-2235
ast	-2236
▁tav	-2237
▁Şah	-2238
ıyoruz	-2239
▁Kasım	-2240
▁Büyükşehir	-2241
▁Yardımcısı	-2242
oh	-2243
▁Nisan	-2244
▁yaptır	-2245
üle	-2246
▁bab	-2247
▁Recep	-2248
▁çözüm	-2249
▁Kılıçdaroğlu	-2250
gür	-2251
ivil	-2252
▁ülkenin	-2253
lamak	-2254
▁açıl	-2255
▁hesap	-2256
▁yılın	-2257
▁başvuru	-2258
iğ	-2259
▁28	-2260
▁bom	-2261
▁tic	-2262
darma	-2263
▁inan	-2264
usunda	-2265
▁Aralık	-2266
▁yöntem	-2267
alarının	-2268
.''	-2269
rem	-2270
ndan	-2271
▁cev	-2272
ümkün	-2273
▁Film	-2274
ilmişti	-2275
▁Amerik	-2276
evi	-2277
nek	-2278
sta	-2279
▁şik	-2280
▁kuvvet	-2281
▁gereken	-2282
▁Araştırma	-2283
▁Başkanlığı	-2284
one	-2285
▁Kür	-2286
▁mik	-2287
▁ilet	-2288
masıyla	-2289
mat	-2290
vis	-2291
▁adı	-2292
▁süreç	-2293
▁taleb	-2294
▁yarat	-2295
▁kurtar	-2296
▁mümkün	-2297
▁oluyor	-2298
emal	-2299
mızı	-2300
meleri	-2301
▁tehdi	-2302
▁tepki	-2303
▁elektr	-2304
▁Güvenlik	-2305
.,	-2306
▁Gül	-2307
▁Öte	-2308
▁ayrı	-2309
▁eleştir	-2310
izyon	-2311
mıştır	-2312
▁kadro	-2313
▁Başsav	-2314
▁görüntü	-2315
▁incelem	-2316
▁yapıldı	-2317
▁öğretmen	-2318
▁çift	-2319
▁dahil	-2320
▁düşünü	-2321
esindeki	-2322
▁Yönetim	-2323
▁şid	-2324
iliği	-2325
▁sabah	-2326
▁erkek	-2327
▁dışı	-2328
▁olabil	-2329
ha	-2330
gör	-2331
▁spor	-2332
▁düzey	-2333
madığını	-2334
▁görüşmeler	-2335
▁açıklamalar	-2336
ücü	-2337
▁can	-2338
▁uyar	-2339
lanıyor	-2340
▁tarihinde	-2341
Türk	-2342
▁mark	-2343
▁Ağustos	-2344
dük	-2345
üyle	-2346
ınca	-2347
▁kir	-2348
lerce	-2349
asıyla	-2350
mayacak	-2351
▁çeşitli	-2352
bo	-2353
▁Ot	-2354
bakır	-2355
landa	-2356
▁herk	-2357
elerine	-2358
masından	-2359
▁199	-2360
siniz	-2361
▁yağış	-2362
arbakır	-2363
meli	-2364
isini	-2365
▁Bölg	-2366
elerini	-2367
▁anlatan	-2368
luğ	-2369
ışı	-2370
▁26	-2371
▁Fat	-2372
liğini	-2373
▁arama	-2374
▁Tayyip	-2375
▁konuda	-2376
FA	-2377
▁Da	-2378
▁toplum	-2379
▁gerekli	-2380
ağa	-2381
▁Fa	-2382
▁Ok	-2383
▁oğ	-2384
unma	-2385
▁Bah	-2386
▁tahmin	-2387
BM	-2388
ekk	-2389
err	-2390
çev	-2391
▁2019	-2392
▁yapı	-2393
▁millet	-2394
▁ameliyat	-2395
ej	-2396
SK	-2397
düğünü	-2398
▁olsun	-2399
▁başında	-2400
▁27	-2401
▁yapıla	-2402
▁Di	-2403
ahim	-2404
unan	-2405
▁Tıp	-2406
▁cen	-2407
▁Antalya	-2408
50	-2409
izm	-2410
▁31	-2411
▁St	-2412
▁han	-2413
▁oluşan	-2414
▁hastalı	-2415
nün	-2416
erçev	-2417
▁Orta	-2418
▁başla	-2419
▁tarihi	-2420
▁olacağı	-2421
▁olmadığı	-2422
▁açısından	-2423
üst	-2424
▁man	-2425
liyor	-2426
▁prot	-2427
olojik	-2428
▁kullanıcı	-2429
▁yaralandı	-2430
rek	-2431
eyle	-2432
▁arada	-2433
▁benim	-2434
▁Yüksek	-2435
▁Mes	-2436
▁rol	-2437
▁Fran	-2438
acağız	-2439
isyonu	-2440
▁kaldı	-2441
▁İspan	-2442
▁alacak	-2443
▁transfer	-2444
nik	-2445
▁2018	-2446
▁önlem	-2447
▁Diyarbakır	-2448
▁40	-2449
utlu	-2450
▁Alt	-2451
▁Hava	-2452
madığı	-2453
▁sıcak	-2454
▁şehit	-2455
▁beledi	-2456
▁çerçev	-2457
fi	-2458
irv	-2459
▁mi	-2460
▁şart	-2461
▁sonuc	-2462
zı	-2463
▁Bul	-2464
▁zam	-2465
▁adam	-2466
dikleri	-2467
▁toplantıs	-2468
ant	-2469
osu	-2470
wit	-2471
▁Ob	-2472
▁Ül	-2473
etre	-2474
akült	-2475
alara	-2476
ormal	-2477
cılığı	-2478
▁yabancı	-2479
udi	-2480
▁tören	-2481
▁başken	-2482
▁şüphel	-2483
abilecek	-2484
▁girişim	-2485
▁3.	-2486
ağım	-2487
cisi	-2488
▁Kat	-2489
ndeki	-2490
▁sona	-2491
▁Müdürü	-2492
▁olduğuna	-2493
▁kaldırıldı	-2494
dağ	-2495
sas	-2496
▁Bank	-2497
▁yarg	-2498
▁şark	-2499
ulması	-2500
▁yılda	-2501
▁başına	-2502
▁araştırma	-2503
▁Milletvekili	-2504
▁In	-2505
stin	-2506
▁Yak	-2507
ısıyla	-2508
▁Gazet	-2509
-0	-2510
5'	-2511
▁pr	-2512
▁Ber	-2513
isine	-2514
▁ayak	-2515
▁parç	-2516
artesi	-2517
▁Haber	-2518
▁çocuğ	-2519
▁Kuvvet	-2520
yu	-2521
▁ünlü	-2522
▁Osman	-2523
▁teslim	-2524
▁olmayan	-2525
▁Ma	-2526
▁nit	-2527
ayasa	-2528
▁düştü	-2529
▁uzman	-2530
▁şehir	-2531
▁tehlik	-2532
▁yapılması	-2533
ete	-2534
▁açı	-2535
▁gid	-2536
▁koş	-2537
▁yıldı	-2538
▁edilmesi	-2539
▁29	-2540
▁mı	-2541
adan	-2542
meden	-2543
▁süren	-2544
▁üretim	-2545
▁yerinde	-2546
▁müdahale	-2547
▁Mu	-2548
cılar	-2549
umsuz	-2550
▁kilo	-2551
▁gören	-2552
luğu	-2553
sinde	-2554
▁bölgede	-2555
▁zorunda	-2556
▁Belediyesi	-2557
▁aralarında	-2558
bi	-2559
kur	-2560
yle	-2561
▁Kız	-2562
▁ces	-2563
▁2017	-2564
▁Ağır	-2565
▁karış	-2566
▁doktor	-2567
▁yanında	-2568
▁yapacak	-2569
▁dakikada	-2570
ETÖ	-2571
itir	-2572
▁dep	-2573
▁mez	-2574
▁Şubat	-2575
ebil	-2576
▁Sor	-2577
▁Cadde	-2578
▁model	-2579
▁muhal	-2580
lanacak	-2581
▁konuşan	-2582
▁dünyanın	-2583
▁personel	-2584
▁kendisine	-2585
▁saatlerinde	-2586
30	-2587
med	-2588
ğin	-2589
▁Sen	-2590
▁eşi	-2591
irken	-2592
▁düny	-2593
▁kötü	-2594
▁Terör	-2595
▁şimdi	-2596
▁yapıyor	-2597
AB	-2598
kaç	-2599
lış	-2600
ayla	-2601
▁Can	-2602
▁Gür	-2603
▁durumda	-2604
▁Kı	-2605
onal	-2606
▁ana	-2607
▁işç	-2608
anıyor	-2609
▁cenaz	-2610
▁milli	-2611
▁sivil	-2612
▁yitir	-2613
▁İngiliz	-2614
siy	-2615
var	-2616
▁diy	-2617
▁Sarı	-2618
▁kurt	-2619
▁dayan	-2620
▁dönüş	-2621
▁Partisi	-2622
▁Açıklamada	-2623
dal	-2624
sim	-2625
erji	-2626
ciler	-2627
▁Kuzey	-2628
▁tehdit	-2629
▁katıldı	-2630
cut	-2631
ere	-2632
▁cih	-2633
▁yolu	-2634
▁ekonomik	-2635
dim	-2636
tör	-2637
ısır	-2638
▁500	-2639
▁laz	-2640
▁sar	-2641
atürk	-2642
▁pazar	-2643
▁tüket	-2644
diş	-2645
fet	-2646
▁bes	-2647
▁azal	-2648
▁hızlı	-2649
▁kolay	-2650
aşa	-2651
cusu	-2652
▁sak	-2653
ağına	-2654
▁Genç	-2655
▁alış	-2656
▁düşür	-2657
▁hemen	-2658
▁ortal	-2659
landığı	-2660
▁şampiyon	-2661
▁Uluslararası	-2662
▁gez	-2663
▁Öğr	-2664
lamen	-2665
meyen	-2666
▁aylık	-2667
▁bakım	-2668
▁etkili	-2669
▁verilm	-2670
ER	-2671
▁dok	-2672
liler	-2673
imizin	-2674
maması	-2675
witter	-2676
▁giden	-2677
▁cezası	-2678
▁Az	-2679
cüsü	-2680
▁Mer	-2681
ilistin	-2682
▁Jan	-2683
▁Kır	-2684
▁göç	-2685
ladık	-2686
▁ders	-2687
▁gider	-2688
▁hukuk	-2689
▁Futbol	-2690
▁ifadesini	-2691
anım	-2692
▁Bun	-2693
kanlı	-2694
lilik	-2695
ısına	-2696
▁iy	-2697
eşil	-2698
liye	-2699
ınıf	-2700
▁mas	-2701
▁mens	-2702
▁diyor	-2703
▁kültür	-2704
▁olumsuz	-2705
pp	-2706
uyu	-2707
anış	-2708
▁yük	-2709
▁Kemal	-2710
▁başarılı	-2711
▁değişiklik	-2712
▁Hat	-2713
demir	-2714
▁iler	-2715
▁itir	-2716
▁oranı	-2717
▁çatış	-2718
alarını	-2719
evizyon	-2720
letvekil	-2721
▁Atatürk	-2722
▁Oy	-2723
▁Seç	-2724
▁mot	-2725
▁kuzey	-2726
▁geliyor	-2727
▁öğrenci	-2728
▁kaybetti	-2729
▁bulunduğunu	-2730
İD	-2731
▁Bas	-2732
▁hüc	-2733
▁num	-2734
okras	-2735
ğinin	-2736
▁adet	-2737
▁üyesi	-2738
layarak	-2739
gar	-2740
▁Kr	-2741
cılı	-2742
▁Gazi	-2743
▁Obama	-2744
▁yıldır	-2745
▁görüldü	-2746
▁olabilir	-2747
▁sonrasında	-2748
ke	-2749
BMM	-2750
alim	-2751
▁AKP	-2752
▁Mad	-2753
▁Tel	-2754
▁gem	-2755
▁koru	-2756
▁trafik	-2757
▁Val	-2758
diler	-2759
luluk	-2760
▁Feder	-2761
▁alına	-2762
▁teşekk	-2763
▁emniyet	-2764
ülü	-2765
▁kut	-2766
▁düşük	-2767
▁çeken	-2768
Türkiye	-2769
▁Kurumu	-2770
▁avukat	-2771
▁Filistin	-2772
▁durumunda	-2773
dek	-2774
fes	-2775
▁lis	-2776
▁şah	-2777
forman	-2778
▁almak	-2779
▁geril	-2780
▁kamer	-2781
▁çekti	-2782
▁Sosyal	-2783
res	-2784
üper	-2785
▁ted	-2786
▁İsv	-2787
▁ilaç	-2788
▁memur	-2789
▁sebeb	-2790
▁kişiler	-2791
rik	-2792
tim	-2793
▁Se	-2794
▁ağr	-2795
ısını	-2796
▁Yunan	-2797
▁diyen	-2798
▁giren	-2799
iştir	-2800
▁Kons	-2801
▁Fakült	-2802
▁şiddet	-2803
▁şüpheli	-2804
▁karşılık	-2805
çak	-2806
arken	-2807
▁Doğu	-2808
▁kriz	-2809
▁Fatih	-2810
▁Murat	-2811
▁büyüm	-2812
▁Kültür	-2813
▁çalışmaları	-2814
ınan	-2815
▁dört	-2816
▁konut	-2817
▁Şahin	-2818
ork	-2819
lulu	-2820
türk	-2821
▁Per	-2822
▁vak	-2823
lında	-2824
▁galib	-2825
▁taraftar	-2826
ŞİD	-2827
▁yanlış	-2828
▁ülkede	-2829
▁politik	-2830
▁kilometre	-2831
abı	-2832
dam	-2833
taj	-2834
▁un	-2835
▁Çok	-2836
lacak	-2837
▁Buna	-2838
▁Mısır	-2839
▁lazım	-2840
▁öngör	-2841
▁rahatsız	-2842
▁yaşamını	-2843
▁kullanılan	-2844
▁New	-2845
▁sin	-2846
▁yılı	-2847
mektedir	-2848
▁genelinde	-2849
neği	-2850
faiye	-2851
▁Caddesi	-2852
▁anlattı	-2853
▁döneminde	-2854
▁vurgulayan	-2855
ze	-2856
ang	-2857
yız	-2858
ğim	-2859
▁2011	-2860
▁TBMM	-2861
imleri	-2862
▁Avust	-2863
▁Bugün	-2864
▁kulüb	-2865
▁sefer	-2866
▁yarın	-2867
▁geçtiğimiz	-2868
ela	-2869
▁Müz	-2870
alama	-2871
▁cihaz	-2872
▁yansı	-2873
▁Savunma	-2874
▁şikayet	-2875
▁teşekkür	-2876
▁galibiyet	-2877
fak	-2878
oma	-2879
ıma	-2880
isay	-2881
▁İki	-2882
▁ortam	-2883
▁rakam	-2884
eng	-2885
▁Yaş	-2886
▁olup	-2887
lasyon	-2888
▁isten	-2889
▁istih	-2890
▁sokak	-2891
▁Twitter	-2892
▁60	-2893
▁poz	-2894
▁taz	-2895
▁otob	-2896
▁Şube	-2897
▁yorum	-2898
▁Meclis	-2899
▁görevli	-2900
▁düzenlem	-2901
▁hastaneye	-2902
▁Bor	-2903
▁Sin	-2904
▁yazı	-2905
▁barış	-2906
▁sınıf	-2907
▁yerleş	-2908
▁istiyor	-2909
▁sistemi	-2910
adi	-2911
▁Go	-2912
imin	-2913
▁dava	-2914
▁birbir	-2915
▁etmesi	-2916
▁geçmiş	-2917
▁yangın	-2918
▁Fakültesi	-2919
▁performan	-2920
▁Abd	-2921
▁İst	-2922
eceğiz	-2923
▁Aydın	-2924
▁doğum	-2925
▁temel	-2926
▁ihtiyaç	-2927
▁tamamen	-2928
▁kaybeden	-2929
▁gerekçesiyle	-2930
▁Kap	-2931
▁ban	-2932
etrol	-2933
▁beri	-2934
▁istik	-2935
▁yasak	-2936
▁normal	-2937
▁Şu	-2938
▁Bin	-2939
▁MHP	-2940
▁kah	-2941
▁çey	-2942
gulan	-2943
▁Konu	-2944
▁cevap	-2945
▁güçlü	-2946
▁Çalış	-2947
▁Festiv	-2948
▁mevcut	-2949
▁kendisini	-2950
eyin	-2951
▁mar	-2952
▁bağım	-2953
▁davet	-2954
▁özgür	-2955
maların	-2956
▁yıldız	-2957
ary	-2958
▁st	-2959
▁Kam	-2960
▁Org	-2961
▁Yal	-2962
▁kalp	-2963
▁yarı	-2964
▁öden	-2965
▁Davut	-2966
▁Kurul	-2967
▁hayvan	-2968
▁yönetic	-2969
▁paylaşım	-2970
▁belirlendi	-2971
ai	-2972
sak	-2973
▁Ara	-2974
▁dos	-2975
▁gec	-2976
▁giz	-2977
▁pek	-2978
▁başta	-2979
▁iptal	-2980
▁müzak	-2981
▁söylü	-2982
▁vardı	-2983
▁alanda	-2984
▁duyurdu	-2985
tepe	-2986
ükle	-2987
imizi	-2988
▁bize	-2989
▁imza	-2990
▁canlı	-2991
▁katkı	-2992
okratik	-2993
▁isimli	-2994
ebilecek	-2995
▁dikkati	-2996
ard	-2997
▁Re	-2998
abet	-2999
▁siz	-3000
▁IŞİD	-3001
▁ekib	-3002
▁yarar	-3003
ümüzdeki	-3004
▁kullandığı	-3005
-4	-3006
emin	-3007
▁enf	-3008
▁ner	-3009
▁idar	-3010
ılmasına	-3011
ve	-3012
anam	-3013
edik	-3014
▁gaz	-3015
▁yerel	-3016
▁milletvekil	-3017
▁BM	-3018
▁iP	-3019
yalı	-3020
▁nak	-3021
imize	-3022
▁2009	-3023
▁Ömer	-3024
bulans	-3025
emeyen	-3026
isayar	-3027
▁metre	-3028
asından	-3029
▁birkaç	-3030
▁Amerikan	-3031
▁edildiği	-3032
ow	-3033
inç	-3034
▁ham	-3035
▁sol	-3036
▁çab	-3037
▁buna	-3038
▁mutlu	-3039
▁konser	-3040
▁tedbir	-3041
▁sıkıntı	-3042
▁kişilerin	-3043
▁vurguladı	-3044
▁açıklamaya	-3045
▁Uy	-3046
▁bö	-3047
▁Boz	-3048
▁Hüs	-3049
▁uğr	-3050
▁Euro	-3051
▁Ligi	-3052
▁Hasan	-3053
▁belli	-3054
▁erken	-3055
▁Çünkü	-3056
▁sonucunda	-3057
▁Sam	-3058
▁mek	-3059
ersiz	-3060
lendi	-3061
▁doğr	-3062
▁Kulüb	-3063
▁düşüş	-3064
▁yargı	-3065
▁İnsan	-3066
▁katılan	-3067
larındaki	-3068
▁günlerde	-3069
▁televizyon	-3070
ruk	-3071
▁kuş	-3072
▁red	-3073
▁bilm	-3074
▁vide	-3075
▁Süper	-3076
▁kitap	-3077
▁yemek	-3078
▁yerde	-3079
ilendir	-3080
▁öncesi	-3081
▁karşısında	-3082
ona	-3083
▁4.	-3084
▁2010	-3085
▁Örgüt	-3086
▁sürede	-3087
▁gösterdi	-3088
▁teknoloj	-3089
▁belirtilen	-3090
4'	-3091
mur	-3092
▁Bal	-3093
▁Jap	-3094
▁Çev	-3095
▁etme	-3096
▁ilan	-3097
▁kalk	-3098
mesiyle	-3099
▁kampan	-3100
▁yaralı	-3101
▁görüyor	-3102
▁olacağını	-3103
An	-3104
kor	-3105
lüm	-3106
ost	-3107
▁ir	-3108
.00'	-3109
▁Face	-3110
▁Kürt	-3111
▁bank	-3112
▁sorum	-3113
▁toplantısında	-3114
barı	-3115
▁kork	-3116
▁Bursa	-3117
▁bakan	-3118
▁kesim	-3119
▁ülkeler	-3120
Bir	-3121
aşı	-3122
aten	-3123
doğu	-3124
▁Gel	-3125
▁baz	-3126
▁cep	-3127
▁ölç	-3128
▁Kong	-3129
▁haft	-3130
▁ihra	-3131
▁maçta	-3132
bilecek	-3133
birliği	-3134
▁eyalet	-3135
▁Jandarma	-3136
▁yardımcı	-3137
bur	-3138
mam	-3139
▁eğ	-3140
ayda	-3141
iber	-3142
tren	-3143
▁App	-3144
cunun	-3145
▁atan	-3146
▁önüne	-3147
ilerden	-3148
▁görüşme	-3149
▁Şampiyon	-3150
gü	-3151
sen	-3152
oman	-3153
miyor	-3154
ıldız	-3155
▁İlçe	-3156
▁zanlı	-3157
▁yargılan	-3158
2'	-3159
SA	-3160
mıyor	-3161
▁Bahç	-3162
ğından	-3163
▁gitti	-3164
lerince	-3165
▁günlük	-3166
▁kamuoy	-3167
▁kullanım	-3168
ati	-3169
ayi	-3170
gaz	-3171
gen	-3172
kiş	-3173
ğan	-3174
▁um	-3175
larca	-3176
▁sine	-3177
▁kredi	-3178
▁alarak	-3179
▁olumlu	-3180
▁toprak	-3181
▁geldiği	-3182
landığını	-3183
▁Mücadele	-3184
▁Trabzonspor	-3185
elç	-3186
ron	-3187
▁45	-3188
▁Kö	-3189
sanı	-3190
▁dol	-3191
▁İyi	-3192
▁Adan	-3193
▁Grub	-3194
▁Kore	-3195
▁işlet	-3196
▁yürüy	-3197
▁haline	-3198
▁suçundan	-3199
▁Davutoğlu	-3200
▁kaf	-3201
hendi	-3202
▁test	-3203
sizlik	-3204
▁Böyle	-3205
▁Kadın	-3206
▁müdür	-3207
▁sebep	-3208
▁temiz	-3209
▁olmaya	-3210
▁hazırlanan	-3211
3'	-3212
▁j	-3213
bey	-3214
adem	-3215
book	-3216
▁Car	-3217
sunuz	-3218
▁Cuma	-3219
miştir	-3220
▁gördü	-3221
▁hakim	-3222
▁olmadı	-3223
▁sürüyor	-3224
▁ortalama	-3225
▁uygulama	-3226
ümü	-3227
▁Gö	-3228
ınar	-3229
▁Mal	-3230
▁ark	-3231
lenme	-3232
siyle	-3233
▁eder	-3234
▁faiz	-3235
▁ordu	-3236
ükleer	-3237
▁ekibi	-3238
▁vergi	-3239
▁yapım	-3240
▁çıkış	-3241
▁başlattı	-3242
▁direktör	-3243
▁etkinlik	-3244
leyi	-3245
▁ora	-3246
▁Arab	-3247
▁Park	-3248
▁edin	-3249
brahim	-3250
▁biraz	-3251
▁Komisyonu	-3252
▁yaralanan	-3253
hi	-3254
etik	-3255
iyer	-3256
▁Kup	-3257
▁keş	-3258
▁yık	-3259
▁çal	-3260
▁Suudi	-3261
▁balık	-3262
▁geçiş	-3263
▁İtalya	-3264
▁görülen	-3265
▁itfaiye	-3266
▁Başbakanı	-3267
şı	-3268
sın	-3269
▁32	-3270
ılım	-3271
▁bat	-3272
▁esn	-3273
▁yav	-3274
▁sene	-3275
▁yıla	-3276
▁Yapılan	-3277
▁gündeme	-3278
▁sanatçı	-3279
▁verecek	-3280
ker	-3281
nız	-3282
yum	-3283
çuk	-3284
▁Sü	-3285
amız	-3286
başı	-3287
▁hab	-3288
▁2015	-3289
▁Dair	-3290
▁anne	-3291
▁bana	-3292
▁Birleş	-3293
▁Derneği	-3294
▁yaşında	-3295
bon	-3296
öğr	-3297
▁5.	-3298
▁Müs	-3299
▁onu	-3300
▁bomb	-3301
▁hafif	-3302
▁müzik	-3303
▁servis	-3304
abi	-3305
▁(2	-3306
▁FETÖ	-3307
▁bede	-3308
▁malz	-3309
▁miktar	-3310
▁Konseyi	-3311
▁protest	-3312
▁başlayacak	-3313
▁yaptıkları	-3314
Ben	-3315
ite	-3316
▁(1	-3317
▁1,	-3318
▁İh	-3319
slan	-3320
▁Yer	-3321
▁kür	-3322
▁Halk	-3323
▁borç	-3324
lığını	-3325
▁Muham	-3326
▁buluş	-3327
▁endiş	-3328
ilirken	-3329
liğinde	-3330
▁bundan	-3331
▁mensup	-3332
▁Anayasa	-3333
▁başkanı	-3334
▁tutuklu	-3335
▁İbrahim	-3336
▁elektrik	-3337
▁gösteren	-3338
-3	-3339
ud	-3340
bat	-3341
büs	-3342
▁Le	-3343
▁Yol	-3344
▁dal	-3345
amaya	-3346
▁Ödül	-3347
kurmay	-3348
▁Çocuk	-3349
alarına	-3350
▁mücade	-3351
▁ambulans	-3352
▁kentinde	-3353
lev	-3354
sur	-3355
▁of	-3356
uvar	-3357
▁Nur	-3358
▁onay	-3359
layıcı	-3360
▁civar	-3361
▁güney	-3362
▁seyir	-3363
▁ilçesi	-3364
▁sorumlu	-3365
eyn	-3366
pek	-3367
rim	-3368
tur	-3369
▁dö	-3370
deri	-3371
▁dağ	-3372
▁pil	-3373
▁ref	-3374
▁kart	-3375
▁renk	-3376
▁Apple	-3377
▁final	-3378
▁hangi	-3379
▁davran	-3380
▁festiv	-3381
▁değildir	-3382
▁yaşadığı	-3383
▁yaptığını	-3384
▁hesabından	-3385
müş	-3386
ons	-3387
şte	-3388
▁Ka	-3389
emesi	-3390
▁Proj	-3391
▁Adalet	-3392
▁Bayram	-3393
▁Millet	-3394
▁gündem	-3395
ilmiştir	-3396
▁yönünde	-3397
▁Müdürlüğ	-3398
▁ediyorum	-3399
▁söylüyor	-3400
SY	-3401
mit	-3402
ğiz	-3403
▁35	-3404
onik	-3405
uncu	-3406
▁HDP	-3407
▁tec	-3408
ediği	-3409
▁depr	-3410
▁kara	-3411
▁zirv	-3412
▁heyec	-3413
▁kayıp	-3414
▁kulüp	-3415
▁bilgisayar	-3416
aka	-3417
▁34	-3418
meni	-3419
▁Ken	-3420
▁Yet	-3421
▁nok	-3422
▁alma	-3423
▁gide	-3424
▁onun	-3425
▁yere	-3426
ülüyor	-3427
▁bebek	-3428
▁örnek	-3429
▁mahkeme	-3430
▁Genelkurmay	-3431
inc	-3432
emey	-3433
esis	-3434
▁yum	-3435
▁yasa	-3436
eneral	-3437
▁Adana	-3438
▁üçüncü	-3439
▁istedik	-3440
▁maliyet	-3441
lal	-3442
atör	-3443
gisi	-3444
kili	-3445
üstü	-3446
▁Van	-3447
▁şar	-3448
▁fayda	-3449
▁petrol	-3450
▁kaydeden	-3451
rid	-3452
emen	-3453
leye	-3454
▁Dir	-3455
▁çap	-3456
engin	-3457
▁dağı	-3458
▁girdi	-3459
▁hisse	-3460
▁kaçır	-3461
▁salon	-3462
▁satın	-3463
▁yasal	-3464
▁Facebook	-3465
▁sayesinde	-3466
HA	-3467
mut	-3468
ray	-3469
liğe	-3470
▁Ham	-3471
▁Sab	-3472
▁tip	-3473
▁attı	-3474
▁Konya	-3475
▁Burada	-3476
▁Mahkeme	-3477
▁denildi	-3478
▁demokras	-3479
▁inceleme	-3480
▁geldiğini	-3481
▁gelişmeler	-3482
▁Cumhuriyeti	-3483
ban	-3484
kar	-3485
▁beş	-3486
▁müşt	-3487
liğine	-3488
▁imkan	-3489
mesinde	-3490
▁maçında	-3491
▁silahlı	-3492
▁taşıyan	-3493
▁Hollanda	-3494
▁sayısının	-3495
co	-3496
▁öğ	-3497
▁Mic	-3498
▁yola	-3499
▁aşırı	-3500
▁İslam	-3501
▁hayata	-3502
▁inşaat	-3503
▁sürücü	-3504
▁Kuvvetleri	-3505
▁çerçevesinde	-3506
▁–	-3507
uar	-3508
▁Göz	-3509
▁Res	-3510
▁aile	-3511
eferan	-3512
laması	-3513
▁altın	-3514
▁dakik	-3515
▁derin	-3516
▁türlü	-3517
▁süreci	-3518
uşturucu	-3519
▁Bankası	-3520
▁Fransız	-3521
▁dünyada	-3522
AT	-3523
gun	-3524
▁Koç	-3525
▁yal	-3526
▁Kaya	-3527
▁yapma	-3528
öğretim	-3529
▁lideri	-3530
▁turist	-3531
▁ticaret	-3532
▁veriyor	-3533
▁belediye	-3534
Biz	-3535
nan	-3536
▁tr	-3537
elim	-3538
emez	-3539
tiler	-3540
▁emek	-3541
▁kims	-3542
▁koşul	-3543
▁uyarı	-3544
▁enerji	-3545
▁katılım	-3546
yol	-3547
ever	-3548
▁büt	-3549
▁2008	-3550
▁Arap	-3551
▁gıda	-3552
▁baskı	-3553
▁Ulusal	-3554
▁emekli	-3555
▁haberi	-3556
▁aldığını	-3557
▁hazırlık	-3558
▁sağlıklı	-3559
▁tutuklan	-3560
TV	-3561
ğe	-3562
oda	-3563
▁Ol	-3564
ağın	-3565
▁Mus	-3566
▁saç	-3567
▁soğ	-3568
▁altı	-3569
▁hiss	-3570
ıyorum	-3571
▁Grubu	-3572
▁cinsel	-3573
▁koruma	-3574
▁sayılı	-3575
▁Akdeniz	-3576
▁diyerek	-3577
▁merkezi	-3578
▁İspanya	-3579
▁öğrenciler	-3580
▁Eş	-3581
ıllı	-3582
▁dök	-3583
▁sahn	-3584
dıktan	-3585
hendis	-3586
leyman	-3587
▁benzer	-3588
▁vermek	-3589
▁oldukça	-3590
▁yönetimi	-3591
ho	-3592
ezi	-3593
şem	-3594
indi	-3595
▁300	-3596
▁kem	-3597
▁maçı	-3598
ılarak	-3599
▁Küçük	-3600
▁Amerika	-3601
▁istiyoruz	-3602
▁Yunanistan	-3603
dat	-3604
geç	-3605
ity	-3606
ral	-3607
▁70	-3608
▁Am	-3609
urum	-3610
▁Kim	-3611
▁str	-3612
▁Çağ	-3613
▁çoğ	-3614
ekret	-3615
matik	-3616
▁araz	-3617
▁kısm	-3618
▁olsa	-3619
▁otel	-3620
▁Karar	-3621
▁karak	-3622
▁olmaz	-3623
▁açılan	-3624
▁liraya	-3625
▁sağanak	-3626
▁Arabistan	-3627
▁’	-3628
ond	-3629
illi	-3630
▁198	-3631
▁ert	-3632
▁Aynı	-3633
▁York	-3634
▁tali	-3635
▁Allah	-3636
▁aracı	-3637
▁istif	-3638
ediğini	-3639
▁sorunu	-3640
ılmasını	-3641
apı	-3642
abir	-3643
▁Kah	-3644
itesi	-3645
ordin	-3646
sızlık	-3647
▁Geçen	-3648
▁mağlu	-3649
▁mesel	-3650
▁Teknik	-3651
▁Süleyman	-3652
▁çalışması	-3653
.0	-3654
ult	-3655
mail	-3656
ılma	-3657
▁Yas	-3658
▁fik	-3659
usuna	-3660
▁kuru	-3661
▁yeri	-3662
undaki	-3663
▁taban	-3664
▁yeterli	-3665
atif	-3666
azlı	-3667
▁Cem	-3668
▁Tah	-3669
▁nüf	-3670
leşme	-3671
▁Sayın	-3672
▁merak	-3673
▁numar	-3674
▁saygı	-3675
liğinin	-3676
▁Kulübü	-3677
▁herkes	-3678
▁alınması	-3679
▁yönetmen	-3680
▁götürüldü	-3681
▁yürütülen	-3682
▁edildiğini	-3683
rin	-3684
imde	-3685
▁Fer	-3686
▁Taş	-3687
▁cam	-3688
▁hik	-3689
▁Bunu	-3690
▁Grup	-3691
▁ikti	-3692
▁kanal	-3693
▁Kupası	-3694
▁dolara	-3695
malarını	-3696
▁anlaşma	-3697
▁yerleştir	-3698
▁olduklarını	-3699
ady	-3700
his	-3701
kal	-3702
enek	-3703
hone	-3704
iyah	-3705
▁197	-3706
▁Sez	-3707
▁bal	-3708
▁biç	-3709
▁not	-3710
▁tas	-3711
▁vaz	-3712
cağız	-3713
liğin	-3714
raman	-3715
▁eser	-3716
▁kısı	-3717
▁anlay	-3718
▁Sistem	-3719
▁birinci	-3720
▁giderek	-3721
▁konuyla	-3722
▁hatırlat	-3723
▁belirlenen	-3724
▁Başsavcılığı	-3725
▁belirtiliyor	-3726
stik	-3727
▁Eğer	-3728
▁ilgi	-3729
▁oyla	-3730
lardır	-3731
▁kaçak	-3732
▁mahal	-3733
▁Şimdi	-3734
lığının	-3735
▁Bakanlı	-3736
▁Hüseyin	-3737
▁nükleer	-3738
▁sürekli	-3739
▁yaparak	-3740
▁özellik	-3741
▁yıllarda	-3742
▁çocukların	-3743
üğ	-3744
dip	-3745
har	-3746
ohn	-3747
paşa	-3748
▁And	-3749
▁Erz	-3750
▁alb	-3751
▁kop	-3752
lığına	-3753
▁mekan	-3754
▁Madrid	-3755
▁görevl	-3756
▁açıklan	-3757
▁alanında	-3758
▁sözlerine	-3759
io	-3760
ham	-3761
tuğ	-3762
ydı	-3763
▁80	-3764
▁Vak	-3765
▁hek	-3766
iklet	-3767
manda	-3768
▁sarı	-3769
▁Uzman	-3770
▁azalt	-3771
▁ihtim	-3772
▁proje	-3773
▁yazar	-3774
▁altını	-3775
▁aracın	-3776
▁bugüne	-3777
▁otobüs	-3778
▁katıldığı	-3779
▁milletvekili	-3780
eks	-3781
soy	-3782
▁90	-3783
▁uğ	-3784
▁Sev	-3785
▁Sul	-3786
▁rast	-3787
▁tabi	-3788
▁İddi	-3789
▁Saldır	-3790
▁kurulu	-3791
▁sigara	-3792
▁sonuna	-3793
▁yalnız	-3794
▁getirildi	-3795
▁yapıldığı	-3796
▁insanların	-3797
▁istediğini	-3798
▁yetkilileri	-3799
▁açıklamasında	-3800
bek	-3801
ong	-3802
▁Ban	-3803
▁Mac	-3804
▁Sok	-3805
▁lig	-3806
▁pak	-3807
▁ruh	-3808
lılık	-3809
▁ayır	-3810
▁yani	-3811
acılık	-3812
▁bitir	-3813
▁itiraz	-3814
▁ulaştı	-3815
mediğini	-3816
▁üyeleri	-3817
▁Festivali	-3818
▁bölgesinde	-3819
AE	-3820
ag	-3821
ogle	-3822
kiler	-3823
▁Kurt	-3824
▁evde	-3825
ulduğu	-3826
▁buldu	-3827
▁deney	-3828
▁hasta	-3829
▁rekor	-3830
alandır	-3831
▁kadının	-3832
▁beklenen	-3833
▁edilecek	-3834
▁vatandaşlar	-3835
,1	-3836
▁ıs	-3837
▁Ege	-3838
▁alk	-3839
▁füz	-3840
▁Şen	-3841
antep	-3842
cının	-3843
onald	-3844
▁adli	-3845
▁hatt	-3846
▁kapı	-3847
yaspor	-3848
▁darbe	-3849
▁ekran	-3850
▁tatil	-3851
▁Müslüm	-3852
▁babası	-3853
▁dışarı	-3854
▁çocuğun	-3855
eferandum	-3856
▁başkenti	-3857
▁ekiplerince	-3858
.1	-3859
ck	-3860
süz	-3861
ayol	-3862
▁Fet	-3863
▁Suç	-3864
▁dip	-3865
errah	-3866
▁otop	-3867
iyatro	-3868
▁Harek	-3869
▁Pazar	-3870
▁Takım	-3871
▁halde	-3872
▁sürdü	-3873
▁etmişti	-3874
▁tüketim	-3875
▁festival	-3876
▁Özellikle	-3877
blem	-3878
ding	-3879
▁Siv	-3880
▁Tüm	-3881
▁ayı	-3882
▁gür	-3883
▁jan	-3884
ndaki	-3885
tıyor	-3886
▁plak	-3887
ağının	-3888
uluyor	-3889
▁bağış	-3890
▁birim	-3891
▁Yıldız	-3892
▁mağdur	-3893
oto	-3894
alım	-3895
▁Tun	-3896
veriş	-3897
▁Hakk	-3898
▁John	-3899
▁sert	-3900
ektörü	-3901
▁Rapor	-3902
▁alanı	-3903
▁motor	-3904
lenmesi	-3905
malıdır	-3906
▁Samsun	-3907
▁attığı	-3908
▁kimlik	-3909
ladığını	-3910
▁gösteri	-3911
▁civarında	-3912
▁yetkililer	-3913
60	-3914
▁De	-3915
gari	-3916
mara	-3917
▁Bek	-3918
▁Han	-3919
▁Tim	-3920
anlar	-3921
▁Adli	-3922
▁sayf	-3923
▁yang	-3924
▁birey	-3925
▁korun	-3926
▁tanım	-3927
▁antren	-3928
▁organiz	-3929
▁çıkacak	-3930
▁düzenlenecek	-3931
her	-3932
▁pla	-3933
ersin	-3934
▁bizi	-3935
▁dost	-3936
▁oğlu	-3937
amazan	-3938
▁sürüc	-3939
ılmıştı	-3940
▁karşıya	-3941
▁muhalef	-3942
▁Abdullah	-3943
▁ediyoruz	-3944
▁çalışıyor	-3945
▁üzerindeki	-3946
ori	-3947
par	-3948
▁Sak	-3949
▁acı	-3950
▁don	-3951
ester	-3952
▁Acil	-3953
▁Bazı	-3954
▁Bizim	-3955
▁Diğer	-3956
▁eksik	-3957
▁nokta	-3958
lardaki	-3959
▁Donald	-3960
▁vardır	-3961
▁yüzden	-3962
▁ülkemiz	-3963
▁alındığı	-3964
▁yükseldi	-3965
▁düşünüyor	-3966
▁öncesinde	-3967
",	-3968
şık	-3969
▁İr	-3970
▁Çar	-3971
▁Şeh	-3972
etici	-3973
▁inşa	-3974
▁filmi	-3975
▁içeri	-3976
▁kanun	-3977
▁maruz	-3978
▁redde	-3979
▁Çelik	-3980
▁Google	-3981
▁İsmail	-3982
▁Bahçeli	-3983
▁gr	-3984
▁ku	-3985
-201	-3986
ekiz	-3987
▁Sah	-3988
▁köpr	-3989
▁skor	-3990
▁İdar	-3991
ülmesi	-3992
▁Hakan	-3993
▁Hüküm	-3994
▁Kendi	-3995
▁ettir	-3996
▁cezaev	-3997
▁gerekir	-3998
▁yaşandı	-3999
▁binlerce	-4000
▁oranında	-4001
▁protesto	-4002
▁İçişleri	-4003
▁kendilerine	-4004
TÜ	-4005
ezil	-4006
kale	-4007
▁Bağ	-4008
▁Sey	-4009
▁Tan	-4010
▁gök	-4011
▁mor	-4012
▁Yani	-4013
lamadı	-4014
▁video	-4015
▁kapalı	-4016
▁savunma	-4017
▁alınacak	-4018
▁verilecek	-4019
▁önümüzdeki	-4020
▁üniversite	-4021
▁Komutanlığı	-4022
uğ	-4023
cat	-4024
brıs	-4025
ette	-4026
eğin	-4027
raki	-4028
▁Var	-4029
▁del	-4030
▁döv	-4031
▁rej	-4032
jansı	-4033
muyor	-4034
▁beni	-4035
▁iade	-4036
▁park	-4037
elikop	-4038
▁Altın	-4039
▁hayır	-4040
▁sahte	-4041
▁kazanan	-4042
▁istiyorum	-4043
▁uyuşturucu	-4044
▁ekiplerinin	-4045
.4	-4046
İT	-4047
▁ton	-4048
▁acil	-4049
▁psik	-4050
▁uçuş	-4051
▁vade	-4052
▁aşağı	-4053
▁grubu	-4054
▁hayal	-4055
▁Sekret	-4056
▁ayrıldı	-4057
▁doğrudan	-4058
▁insanlar	-4059
AK	-4060
qu	-4061
çu	-4062
ash	-4063
rüb	-4064
▁Sa	-4065
▁du	-4066
form	-4067
▁Mev	-4068
▁Pak	-4069
▁sön	-4070
lıklı	-4071
mekte	-4072
▁mini	-4073
ilahlı	-4074
▁Yeşil	-4075
▁oynan	-4076
▁deprem	-4077
▁finans	-4078
▁iPhone	-4079
▁kişiyi	-4080
abiliyor	-4081
▁ekipler	-4082
▁kaldığı	-4083
▁Gaziantep	-4084
▁enflasyon	-4085
▁performans	-4086
.3	-4087
go	-4088
zu	-4089
▁2,	-4090
▁Jo	-4091
▁Oğ	-4092
▁ış	-4093
▁Düz	-4094
▁Eki	-4095
▁def	-4096
▁oku	-4097
▁pan	-4098
▁aray	-4099
▁Güneş	-4100
▁detay	-4101
▁cumhur	-4102
▁ilişki	-4103
▁temsilc	-4104
▁istediği	-4105
▁parlamen	-4106
▁Karadeniz	-4107
nu	-4108
yse	-4109
▁37	-4110
ansı	-4111
▁Pat	-4112
▁maden	-4113
▁unsur	-4114
▁kamyon	-4115
▁ticari	-4116
▁cinayet	-4117
▁problem	-4118
▁yapmaya	-4119
▁saldırıda	-4120
▁gösteriyor	-4121
hat	-4122
▁Et	-4123
▁po	-4124
▁Fin	-4125
▁Sür	-4126
lanma	-4127
laşık	-4128
▁2012	-4129
lanmış	-4130
▁Sanat	-4131
▁düşen	-4132
▁endek	-4133
▁üstün	-4134
elerden	-4135
latform	-4136
▁Kıbrıs	-4137
▁Havalim	-4138
▁Japonya	-4139
▁Sözcüsü	-4140
▁bilinen	-4141
▁birinin	-4142
▁tedavisi	-4143
▁düşünüyorum	-4144
▁açıklamalarda	-4145
car	-4146
ücu	-4147
▁38	-4148
tılı	-4149
▁Net	-4150
▁Tor	-4151
▁2013	-4152
▁darb	-4153
▁Paris	-4154
▁temin	-4155
▁zorun	-4156
eceğine	-4157
▁deplas	-4158
▁etmeye	-4159
▁olağan	-4160
azartesi	-4161
▁çıkardı	-4162
▁düzenlediği	-4163
ij	-4164
▁3,	-4165
imli	-4166
çesi	-4167
üler	-4168
▁Bat	-4169
▁Dil	-4170
▁Doç	-4171
▁ağrı	-4172
▁euro	-4173
▁ihal	-4174
▁sunu	-4175
▁önde	-4176
▁bölge	-4177
▁etmiş	-4178
▁evine	-4179
▁şarkı	-4180
▁fırsat	-4181
▁memnun	-4182
▁zengin	-4183
▁bölgeye	-4184
▁sonraki	-4185
▁kullanan	-4186
▁hastanede	-4187
▁verdiğini	-4188
▁Federasyonu	-4189
cer	-4190
▁49	-4191
abak	-4192
dası	-4193
içek	-4194
▁Gaz	-4195
▁müs	-4196
▁şif	-4197
isyen	-4198
▁defa	-4199
▁hücr	-4200
▁mekt	-4201
ttifak	-4202
▁Bölge	-4203
▁adliy	-4204
▁zaten	-4205
▁çağır	-4206
▁Selçuk	-4207
▁açılış	-4208
▁lisans	-4209
umartesi	-4210
▁doğrult	-4211
▁kurulan	-4212
▁küresel	-4213
▁müzaker	-4214
larımızın	-4215
▁Avustral	-4216
▁Muhammed	-4217
▁bağımsız	-4218
▁iddianam	-4219
▁sitesinde	-4220
.5	-4221
fı	-4222
EFA	-4223
avuş	-4224
seri	-4225
▁Cam	-4226
▁Say	-4227
▁tüf	-4228
istik	-4229
lıkla	-4230
▁stan	-4231
▁ihlal	-4232
▁konuk	-4233
▁rakip	-4234
▁gözlem	-4235
▁oluştu	-4236
▁Şirket	-4237
▁Marmara	-4238
▁dünyaya	-4239
▁kendini	-4240
▁kendisi	-4241
▁muhabir	-4242
▁vurgulan	-4243
▁hükümetin	-4244
cz	-4245
gıt	-4246
ina	-4247
elan	-4248
▁Ver	-4249
▁boğ	-4250
▁gay	-4251
▁Emre	-4252
▁açtı	-4253
▁forma	-4254
▁gizli	-4255
▁ister	-4256
▁makam	-4257
▁yerli	-4258
▁çevre	-4259
▁çoğun	-4260
▁Brezil	-4261
▁nerede	-4262
▁Örgütü	-4263
▁liradan	-4264
▁siyaset	-4265
▁bağlantı	-4266
▁programı	-4267
▁aracılığı	-4268
▁dolayısıyla	-4269
PG	-4270
iği	-4271
nam	-4272
▁Aş	-4273
▁müt	-4274
▁sem	-4275
▁üye	-4276
sanız	-4277
urken	-4278
üştür	-4279
▁UEFA	-4280
▁uydu	-4281
usunun	-4282
▁Albay	-4283
▁Sınav	-4284
eksiyon	-4285
tıkları	-4286
▁çıktığı	-4287
▁yaptırım	-4288
ou	-4289
dak	-4290
üny	-4291
inen	-4292
kray	-4293
vert	-4294
▁Far	-4295
▁Mor	-4296
elerle	-4297
▁kural	-4298
▁suçla	-4299
▁İsveç	-4300
kişehir	-4301
▁Arslan	-4302
▁aralık	-4303
▁başlan	-4304
▁evinde	-4305
ilmesini	-4306
▁öğretim	-4307
▁açıklandı	-4308
▁operasyonda	-4309
▁öğrencilerin	-4310
po	-4311
ümr	-4312
▁kişiye	-4313
▁tazmin	-4314
ebiliyor	-4315
▁kazandı	-4316
▁Demirtaş	-4317
▁bırakıldı	-4318
▁tamamladı	-4319
▁başlatıldı	-4320
▁bilgilendir	-4321
7'	-4322
AR	-4323
ner	-4324
▁Üç	-4325
▁Gir	-4326
ciğer	-4327
▁Batı	-4328
▁Seçim	-4329
▁Sivas	-4330
▁hasar	-4331
▁tanık	-4332
▁Alınan	-4333
▁düşünc	-4334
▁vazgeç	-4335
▁yakala	-4336
▁avukatı	-4337
▁helikop	-4338
▁kişilik	-4339
tıklarını	-4340
▁getirilen	-4341
▁referandum	-4342
▁yapıldığını	-4343
şi	-4344
▁Ve	-4345
ılır	-4346
▁Sta	-4347
▁içi	-4348
▁unu	-4349
▁Uzun	-4350
▁baba	-4351
▁işçi	-4352
▁maaş	-4353
▁mahk	-4354
civert	-4355
▁Bilim	-4356
▁Kanun	-4357
▁dilek	-4358
▁farkı	-4359
▁mevki	-4360
▁orada	-4361
▁taşın	-4362
▁annesi	-4363
▁görünt	-4364
▁karşın	-4365
▁yağmur	-4366
▁şeyler	-4367
▁Ramazan	-4368
▁aktardı	-4369
▁aslında	-4370
▁dikkate	-4371
▁kırmızı	-4372
▁başkanlı	-4373
▁iletişim	-4374
▁pozisyon	-4375
▁gerçekleşti	-4376
?"	-4377
ku	-4378
osk	-4379
▁ob	-4380
onun	-4381
▁Dar	-4382
▁Kıs	-4383
▁Nec	-4384
▁ism	-4385
▁Çak	-4386
laşma	-4387
müştü	-4388
şamba	-4389
ğinden	-4390
▁Kurum	-4391
▁Yönet	-4392
▁adres	-4393
▁hızla	-4394
▁kapas	-4395
▁yavaş	-4396
cıların	-4397
▁olayın	-4398
▁söndür	-4399
anıyorum	-4400
▁etkilen	-4401
▁konuşma	-4402
▁savundu	-4403
▁çıkıyor	-4404
elerinden	-4405
▁olmasını	-4406
▁Operasyon	-4407
▁düzenleme	-4408
▁gazetecilere	-4409
AŞ	-4410
AEŞ	-4411
eor	-4412
iba	-4413
▁36	-4414
▁44	-4415
▁48	-4416
▁sp	-4417
ekin	-4418
utin	-4419
▁buz	-4420
▁güc	-4421
▁pen	-4422
iyeti	-4423
▁uzat	-4424
▁Saray	-4425
▁diren	-4426
▁hikay	-4427
▁tesis	-4428
▁ödeme	-4429
▁içeren	-4430
▁polise	-4431
▁oynanan	-4432
▁sorularını	-4433
sul	-4434
▁La	-4435
esiz	-4436
▁Bab	-4437
▁hük	-4438
▁Port	-4439
▁arka	-4440
▁kanı	-4441
▁Karak	-4442
▁güneş	-4443
▁tanın	-4444
▁tarım	-4445
▁meslek	-4446
▁ortadan	-4447
▁takımın	-4448
▁yürüyüş	-4449
▁Özdemir	-4450
▁şirketi	-4451
▁kuvvetli	-4452
▁doğrultusunda	-4453
ier	-4454
mel	-4455
▁33	-4456
hane	-4457
keri	-4458
▁Ger	-4459
tıyla	-4460
▁Lond	-4461
ketbol	-4462
▁bedel	-4463
▁temas	-4464
▁Çetin	-4465
▁habere	-4466
▁metrek	-4467
▁nedeni	-4468
▁Öztürk	-4469
▁ederken	-4470
▁maddesi	-4471
▁süredir	-4472
▁vermesi	-4473
▁bilgiler	-4474
▁sağlayan	-4475
▁alışveriş	-4476
.2	-4477
uc	-4478
'',	-4479
elt	-4480
▁Bo	-4481
amet	-4482
atej	-4483
▁Lib	-4484
▁peş	-4485
▁2014	-4486
▁Alan	-4487
▁DAEŞ	-4488
▁dosy	-4489
ington	-4490
sinden	-4491
▁beyaz	-4492
▁desteğ	-4493
▁göçmen	-4494
▁malzem	-4495
▁sağlan	-4496
▁kariyer	-4497
▁adliyeye	-4498
▁kadınların	-4499
Ar	-4500
gal	-4501
rum	-4502
▁ap	-4503
kaya	-4504
laka	-4505
▁Rum	-4506
▁Sır	-4507
▁The	-4508
▁Ven	-4509
lamaz	-4510
etiyle	-4511
▁Ukray	-4512
▁demek	-4513
▁derec	-4514
▁halen	-4515
▁mesaf	-4516
▁orman	-4517
▁çünkü	-4518
▁Kanunu	-4519
▁Kazada	-4520
▁Mersin	-4521
▁bayram	-4522
▁Belediy	-4523
▁aktaran	-4524
▁bunların	-4525
▁dolarlık	-4526
▁kararını	-4527
▁durumunun	-4528
▁işlemleri	-4529
ts	-4530
za	-4531
ros	-4532
anya	-4533
ital	-4534
izik	-4535
▁soy	-4536
▁Çek	-4537
üzgar	-4538
▁ismi	-4539
▁oper	-4540
elerek	-4541
▁adayı	-4542
▁diplo	-4543
▁istis	-4544
▁Öğren	-4545
▁Üyesi	-4546
▁olayla	-4547
▁Böylece	-4548
▁yükseliş	-4549
▁şirketin	-4550
▁başkanlık	-4551
▁hastalığı	-4552
abileceğini	-4553
▁gönderildi	-4554
▁yayımlanan	-4555
emi	-4556
kır	-4557
▁3'	-4558
▁İd	-4559
itap	-4560
rika	-4561
ışma	-4562
▁Mak	-4563
▁fak	-4564
▁kıy	-4565
ibaun	-4566
ruklu	-4567
▁Koca	-4568
▁anal	-4569
▁anım	-4570
▁eşit	-4571
▁vücu	-4572
elikle	-4573
lemeye	-4574
alisyon	-4575
leniyor	-4576
liyoruz	-4577
▁amaçlı	-4578
▁heyeti	-4579
▁ribaun	-4580
▁istihdam	-4581
▁oldukları	-4582
▁başlatılan	-4583
▁tutuklandı	-4584
hu	-4585
▁eg	-4586
adir	-4587
tern	-4588
uzur	-4589
▁400	-4590
▁Fır	-4591
▁Tic	-4592
▁Yav	-4593
▁mey	-4594
allah	-4595
gıtay	-4596
▁hala	-4597
▁şans	-4598
maktan	-4599
▁kalit	-4600
▁varsa	-4601
▁Ödülü	-4602
▁seçmen	-4603
▁yaygın	-4604
▁itibarı	-4605
▁Büyükelç	-4606
▁Müslüman	-4607
▁içindeki	-4608
▁yetiştir	-4609
▁ifadeleri	-4610
▁verilmesi	-4611
▁vatandaşların	-4612
PD	-4613
köy	-4614
▁bı	-4615
arya	-4616
lüğe	-4617
lığa	-4618
▁Yan	-4619
▁Yaz	-4620
▁Yen	-4621
▁sur	-4622
▁Üst	-4623
sınız	-4624
▁alım	-4625
malara	-4626
▁banka	-4627
▁hakkı	-4628
ılırken	-4629
▁Meydan	-4630
▁asgari	-4631
▁satışa	-4632
ilmesine	-4633
▁medyada	-4634
▁sorunun	-4635
▁sağlamak	-4636
▁Eskişehir	-4637
▁teknoloji	-4638
▁Havalimanı	-4639
mal	-4640
opa	-4641
▁Ku	-4642
tarı	-4643
▁150	-4644
▁Köy	-4645
▁nes	-4646
▁pas	-4647
▁uğra	-4648
▁Doğan	-4649
▁artan	-4650
▁ekledi	-4651
▁polisi	-4652
▁tecrüb	-4653
▁İkinci	-4654
▁karşılı	-4655
▁Komutanı	-4656
▁bulundur	-4657
▁gerektiği	-4658
▁yapılıyor	-4659
▁Avustralya	-4660
▁iddiasıyla	-4661
6'	-4662
AN	-4663
are	-4664
ena	-4665
▁(3	-4666
▁Bür	-4667
▁Dön	-4668
▁Rob	-4669
▁bür	-4670
▁gar	-4671
▁tuz	-4672
masın	-4673
tanın	-4674
▁ilçe	-4675
ımızın	-4676
▁beyan	-4677
▁hatta	-4678
▁içine	-4679
▁açıldı	-4680
▁görevi	-4681
▁olursa	-4682
▁çıkart	-4683
▁yetkili	-4684
ashington	-4685
▁Yaklaşık	-4686
▁insanları	-4687
▁çalıştığı	-4688
▁sıralarında	-4689
▁aracılığıyla	-4690
zi	-4691
ıb	-4692
şe	-4693
mür	-4694
ura	-4695
▁39	-4696
▁AA	-4697
rist	-4698
usuf	-4699
▁fab	-4700
cilik	-4701
estor	-4702
eytin	-4703
ğiniz	-4704
cağına	-4705
muştur	-4706
▁asist	-4707
▁komut	-4708
▁Kanada	-4709
▁fiyatı	-4710
▁söyley	-4711
▁yapımı	-4712
lediğini	-4713
malarına	-4714
▁Bölgesi	-4715
▁başkent	-4716
▁alınarak	-4717
▁yönlendir	-4718
▁yönündeki	-4719
bu	-4720
ug	-4721
▁•	-4722
iya	-4723
▁4,	-4724
▁65	-4725
lili	-4726
orta	-4727
ümüş	-4728
▁Boğ	-4729
▁Kav	-4730
▁Tal	-4731
▁şaş	-4732
espor	-4733
sının	-4734
tacak	-4735
▁Eski	-4736
▁bahç	-4737
▁unut	-4738
memesi	-4739
üldüğü	-4740
▁Benim	-4741
▁Beyaz	-4742
▁Kızıl	-4743
▁çeyre	-4744
alardan	-4745
▁Askeri	-4746
▁yerini	-4747
▁Holding	-4748
▁muhalif	-4749
▁süreçte	-4750
▁cezasına	-4751
▁harekete	-4752
▁hükümeti	-4753
▁yapacağı	-4754
▁başladığı	-4755
▁bilgileri	-4756
▁olacaktır	-4757
rol	-4758
gesi	-4759
ıştı	-4760
▁Mel	-4761
▁Tat	-4762
iplin	-4763
larım	-4764
ümrük	-4765
ımıza	-4766
▁Belç	-4767
▁Real	-4768
▁kaza	-4769
▁kıya	-4770
▁mali	-4771
▁Yusuf	-4772
▁stand	-4773
▁veril	-4774
lendiği	-4775
tiğimiz	-4776
▁mağlup	-4777
▁takdir	-4778
▁hakları	-4779
▁doğalgaz	-4780
▁edeceğiz	-4781
▁paylaştı	-4782
▁tartışma	-4783
▁İspanyol	-4784
lediklerini	-4785
▁ettiklerini	-4786
-5	-4787
-6	-4788
nuv	-4789
▁TV	-4790
▁TÜ	-4791
brek	-4792
ceği	-4793
kırı	-4794
▁112	-4795
▁Kaç	-4796
▁ona	-4797
▁vir	-4798
yasal	-4799
çiler	-4800
ılmaz	-4801
▁Tekn	-4802
▁esas	-4803
▁İşte	-4804
▁Şüph	-4805
ayacak	-4806
▁adını	-4807
▁nüfus	-4808
▁sığın	-4809
meyecek	-4810
▁Ekonom	-4811
▁Londra	-4812
▁girecek	-4813
▁Yargıtay	-4814
▁sonuçları	-4815
▁merkezinde	-4816
rı	-4817
SYM	-4818
ire	-4819
üde	-4820
ğla	-4821
şek	-4822
▁54	-4823
mıza	-4824
resi	-4825
▁BDP	-4826
▁Bit	-4827
▁Fil	-4828
▁Pen	-4829
▁kış	-4830
▁mis	-4831
▁vit	-4832
▁Şim	-4833
makam	-4834
memiş	-4835
sever	-4836
ındır	-4837
▁edeb	-4838
▁odak	-4839
eksika	-4840
luluğu	-4841
▁konum	-4842
▁namaz	-4843
▁Turizm	-4844
asındaki	-4845
▁anlayış	-4846
▁gidiyor	-4847
▁olmuştu	-4848
▁jandarma	-4849
▁kazandır	-4850
▁sorusuna	-4851
▁Direktörü	-4852
▁sözlerini	-4853
ebileceğini	-4854
▁toplantısı	-4855
.’	-4856
Al	-4857
uç	-4858
vi	-4859
ıf	-4860
kel	-4861
red	-4862
yüz	-4863
çın	-4864
▁55	-4865
▁Te	-4866
ayıf	-4867
▁Mat	-4868
▁may	-4869
▁çay	-4870
▁Plan	-4871
▁asla	-4872
▁büny	-4873
▁yolc	-4874
▁İnce	-4875
dikten	-4876
imizde	-4877
▁Metin	-4878
▁Muğla	-4879
▁sakat	-4880
lanarak	-4881
lıkları	-4882
▁Yaralı	-4883
▁hassas	-4884
▁takımı	-4885
▁Erzurum	-4886
▁bulutlu	-4887
▁hakaret	-4888
▁plakalı	-4889
▁tahliye	-4890
abileceği	-4891
▁görevini	-4892
▁bulunması	-4893
▁olduğunun	-4894
▁çalışmalarını	-4895
ris	-4896
ıza	-4897
▁(4	-4898
▁52	-4899
▁le	-4900
isel	-4901
mede	-4902
▁işi	-4903
▁sap	-4904
▁sız	-4905
▁terk	-4906
mediği	-4907
▁siyah	-4908
▁Gazete	-4909
▁akıllı	-4910
▁aykırı	-4911
▁davası	-4912
▁gördük	-4913
▁görüle	-4914
▁Ukrayna	-4915
▁iktidar	-4916
▁seyahat	-4917
▁kilometr	-4918
▁geçirildi	-4919
▁konuşmada	-4920
▁Washington	-4921
▁itibarıyla	-4922
▁yayınlanan	-4923
▁işlemlerinin	-4924
düm	-4925
▁64	-4926
ikli	-4927
uyla	-4928
yken	-4929
ücut	-4930
▁Cih	-4931
▁Den	-4932
▁Dis	-4933
▁Haf	-4934
▁Ker	-4935
▁ade	-4936
▁fon	-4937
barat	-4938
usunu	-4939
çılık	-4940
▁Esad	-4941
▁kamp	-4942
▁kavg	-4943
saspor	-4944
▁Libya	-4945
▁heyet	-4946
▁kalab	-4947
▁Sanayi	-4948
▁Sultan	-4949
▁alması	-4950
▁arttır	-4951
▁büyüme	-4952
▁güncel	-4953
▁mutlaka	-4954
malarının	-4955
▁Toplantı	-4956
▁ilçesine	-4957
▁oynadığı	-4958
▁işbirliği	-4959
▁demokratik	-4960
▁düzenlendi	-4961
GK	-4962
ry	-4963
gül	-4964
les	-4965
ock	-4966
yet	-4967
▁Gu	-4968
▁Po	-4969
▁düğ	-4970
yonel	-4971
▁derg	-4972
▁sanı	-4973
▁albüm	-4974
▁huzur	-4975
▁kapan	-4976
▁oyunu	-4977
▁yenil	-4978
▁yürür	-4979
▁İsviç	-4980
leyecek	-4981
▁ailesi	-4982
▁bunları	-4983
▁gerekti	-4984
▁geçiren	-4985
▁gördüğü	-4986
▁haftada	-4987
▁hatırla	-4988
▁heyecan	-4989
▁tasarım	-4990
▁Demokrat	-4991
▁kadınlar	-4992
▁toplanan	-4993
▁güçlendir	-4994
▁sebebiyle	-4995
▁çocukları	-4996
▁çıkarıldı	-4997
cin	-4998
▁2'	-4999
oför	-5000
▁Erk	-5001
▁Gön	-5002
ulmuş	-5003
▁Kısa	-5004
▁kaps	-5005
ferans	-5006
▁Resmi	-5007
▁delil	-5008
▁kuruş	-5009
▁maçın	-5010
▁mecli	-5011
▁mobil	-5012
▁yetiş	-5013
▁geride	-5014
▁Meksika	-5015
▁etkisiz	-5016
▁gelerek	-5017
▁geçirdi	-5018
▁güçleri	-5019
▁ihtiyac	-5020
▁polisin	-5021
▁Parlamen	-5022
▁anlamına	-5023
▁komisyon	-5024
▁iddiaları	-5025
▁tarihleri	-5026
▁cezalandır	-5027
▁helikopter	-5028
▁kullanıldı	-5029
▁organizasyon	-5030
com	-5031
des	-5032
ert	-5033
ğur	-5034
▁47	-5035
▁Sp	-5036
▁Ör	-5037
ales	-5038
emek	-5039
▁NTV	-5040
▁hac	-5041
ürken	-5042
▁cami	-5043
▁öldü	-5044
▁öyle	-5045
ılmaya	-5046
▁Güler	-5047
▁Tarih	-5048
▁bıçak	-5049
▁makin	-5050
▁sorgu	-5051
▁çevir	-5052
▁Türkçe	-5053
▁almaya	-5054
▁doldur	-5055
▁dönemi	-5056
▁gereği	-5057
▁geçici	-5058
▁halkın	-5059
▁sinema	-5060
▁süreli	-5061
▁teşkil	-5062
▁kampany	-5063
▁bekleyen	-5064
▁Orgeneral	-5065
▁Sekreteri	-5066
▁edilmişti	-5067
▁çıktığını	-5068
En	-5069
ene	-5070
▁41	-5071
▁Mo	-5072
▁TE	-5073
emiş	-5074
▁Oğuz	-5075
▁alty	-5076
talyan	-5077
▁Salih	-5078
▁Tekin	-5079
▁damar	-5080
▁fakat	-5081
▁ithal	-5082
▁marka	-5083
▁olayı	-5084
▁olmuş	-5085
▁savcı	-5086
▁Çavuş	-5087
biliyor	-5088
liğiyle	-5089
▁açıdan	-5090
▁çeyrek	-5091
▁gelmesi	-5092
▁çekiyor	-5093
ilmesinin	-5094
lerindeki	-5095
▁arkadaşı	-5096
▁gazetesi	-5097
▁karşılan	-5098
▁sağlayacak	-5099
▁toplantıda	-5100
▁belirlenemeyen	-5101
NA	-5102
▁Sh	-5103
▁So	-5104
▁Ür	-5105
▁üs	-5106
▁İm	-5107
ileş	-5108
sına	-5109
▁Cen	-5110
▁Din	-5111
▁Kil	-5112
▁vek	-5113
amadı	-5114
neğin	-5115
şembe	-5116
▁City	-5117
▁Mete	-5118
▁öğle	-5119
alanan	-5120
celona	-5121
leyici	-5122
ulacak	-5123
▁Sokak	-5124
▁bilet	-5125
▁toplu	-5126
lilerin	-5127
▁profes	-5128
▁yapmış	-5129
▁desteği	-5130
▁kişiden	-5131
▁müsabak	-5132
▁yapması	-5133
▁yazılım	-5134
▁zorunlu	-5135
layısıyla	-5136
▁tazminat	-5137
▁Birleşmiş	-5138
▁cumhurbaş	-5139
▁karşısına	-5140
▁elektronik	-5141
99	-5142
ES	-5143
yer	-5144
▁rö	-5145
▁Üs	-5146
aydı	-5147
iydi	-5148
sını	-5149
öbet	-5150
▁Yüz	-5151
▁arz	-5152
▁diş	-5153
▁geb	-5154
▁meş	-5155
engiz	-5156
imine	-5157
▁Amir	-5158
▁bask	-5159
▁Karab	-5160
▁Malat	-5161
▁Organ	-5162
▁Roman	-5163
▁Vakfı	-5164
▁arası	-5165
▁beyin	-5166
▁paket	-5167
▁sakin	-5168
cilerin	-5169
tığımız	-5170
▁cenaze	-5171
▁filmin	-5172
▁gürült	-5173
▁mevsim	-5174
▁yıldan	-5175
▁Şimşek	-5176
▁stratej	-5177
▁Bakanlık	-5178
▁kapsamda	-5179
▁çocuklar	-5180
▁belirledi	-5181
▁bölümünde	-5182
▁mahkemeye	-5183
▁belirtiyor	-5184
▁açıklamıştı	-5185
ko	-5186
eyh	-5187
ürr	-5188
▁5,	-5189
▁Un	-5190
▁ab	-5191
berg	-5192
uman	-5193
▁Pol	-5194
▁Vol	-5195
talay	-5196
▁uzay	-5197
▁anket	-5198
▁bozuk	-5199
▁danış	-5200
▁hakem	-5201
▁ikram	-5202
▁pilot	-5203
▁yazdı	-5204
dukları	-5205
▁Takımı	-5206
▁istifa	-5207
▁turizm	-5208
anakkale	-5209
bileceği	-5210
▁Kayseri	-5211
▁devreye	-5212
▁değerli	-5213
▁edilmiş	-5214
▁sağlığı	-5215
▁uyruklu	-5216
▁yoluyla	-5217
▁çarptır	-5218
▁İtalyan	-5219
▁standart	-5220
▁uygulanan	-5221
▁istediklerini	-5222
TC	-5223
we	-5224
bin	-5225
don	-5226
lor	-5227
vik	-5228
▁Co	-5229
okul	-5230
stit	-5231
ğunu	-5232
▁hus	-5233
▁kov	-5234
▁rah	-5235
lığın	-5236
▁Uğur	-5237
▁ayda	-5238
▁kıyı	-5239
▁ÖSYM	-5240
▁Fakat	-5241
▁Görüş	-5242
▁bomba	-5243
▁bulan	-5244
▁kısıt	-5245
▁tutar	-5246
▁zayıf	-5247
▁Şanlı	-5248
elendir	-5249
▁Taksim	-5250
▁Yalçın	-5251
▁böbrek	-5252
▁imkanı	-5253
▁restor	-5254
▁ulaşım	-5255
▁belediy	-5256
▁projesi	-5257
▁dolandır	-5258
▁herkesin	-5259
▁yılından	-5260
▁Milletler	-5261
▁görülüyor	-5262
▁oynanacak	-5263
▁Hastanesine	-5264
▁olabileceğini	-5265
sü	-5266
İL	-5267
yak	-5268
▁46	-5269
▁75	-5270
▁FI	-5271
eter	-5272
olog	-5273
▁250	-5274
▁Ala	-5275
▁Hiç	-5276
▁Sem	-5277
▁fil	-5278
▁ölü	-5279
liyet	-5280
mızın	-5281
▁Ekip	-5282
eyecek	-5283
▁kimse	-5284
▁yalan	-5285
▁Bundan	-5286
▁Hizmet	-5287
▁açtığı	-5288
▁elinde	-5289
▁etkisi	-5290
▁Ticaret	-5291
▁durumun	-5292
▁güvenli	-5293
▁ihracat	-5294
▁yılının	-5295
▁davranış	-5296
▁kurtarma	-5297
▁merkezli	-5298
▁olmasına	-5299
▁telefonu	-5300
▁Barcelona	-5301
▁altındaki	-5302
▁bilgilere	-5303
▁güvenliği	-5304
▁yakınları	-5305
▁kaybettiği	-5306
8'	-5307
İs	-5308
▁Q	-5309
ira	-5310
lis	-5311
omp	-5312
üye	-5313
▁51	-5314
▁Öc	-5315
izin	-5316
▁eve	-5317
▁slo	-5318
ukarı	-5319
yacak	-5320
▁Esen	-5321
alarla	-5322
ağında	-5323
▁Aslan	-5324
▁Orman	-5325
▁Şehit	-5326
▁Atalay	-5327
▁Sadece	-5328
▁kaybol	-5329
▁mahkum	-5330
▁verici	-5331
▁Silahlı	-5332
▁kanseri	-5333
▁yolunda	-5334
▁zamanlı	-5335
▁kimyasal	-5336
▁gerçekten	-5337
▁muhalefet	-5338
▁Çanakkale	-5339
▁kesinlikle	-5340
▁kullanarak	-5341
▁olağanüstü	-5342
▁Dolayısıyla	-5343
ly	-5344
ÖK	-5345
dun	-5346
isa	-5347
iğe	-5348
oyu	-5349
▁42	-5350
.201	-5351
afer	-5352
iter	-5353
▁Dan	-5354
▁Lev	-5355
▁Men	-5356
▁aşa	-5357
▁hır	-5358
▁reh	-5359
ayolu	-5360
▁Asya	-5361
▁avan	-5362
▁komş	-5363
▁ihbar	-5364
▁sinir	-5365
▁şeker	-5366
abilmek	-5367
▁akadem	-5368
▁beslen	-5369
▁hisset	-5370
▁isabet	-5371
▁talebi	-5372
▁olmadan	-5373
ılmasının	-5374
▁yüzünden	-5375
▁planlanan	-5376
▁alındığını	-5377
▁hakkındaki	-5378
▁sağlanması	-5379
▁kendilerini	-5380
YD	-5381
gıç	-5382
iyo	-5383
yıl	-5384
▁ef	-5385
burg	-5386
▁1-0	-5387
▁Tok	-5388
▁beğ	-5389
▁ila	-5390
▁pop	-5391
▁süt	-5392
anlık	-5393
imler	-5394
makla	-5395
unlar	-5396
▁Kamu	-5397
▁harc	-5398
▁topr	-5399
amayan	-5400
laştık	-5401
▁alkol	-5402
▁birik	-5403
▁yetki	-5404
osiklet	-5405
ılacağı	-5406
▁Temsil	-5407
▁ulusal	-5408
▁üretic	-5409
▁Bayramı	-5410
▁Meydanı	-5411
▁avantaj	-5412
▁denetim	-5413
▁harekat	-5414
▁noktada	-5415
▁taşıyor	-5416
▁tiyatro	-5417
▁yürüttü	-5418
▁çalıştı	-5419
▁İsviçre	-5420
▁Brezilya	-5421
▁Soruştur	-5422
bileceğini	-5423
▁kaldığını	-5424
▁koalisyon	-5425
▁yakalandı	-5426
▁çalışmalarına	-5427
va	-5428
ane	-5429
▁km	-5430
alel	-5431
araj	-5432
atik	-5433
dern	-5434
üntü	-5435
▁Lis	-5436
▁beb	-5437
▁gur	-5438
▁tez	-5439
▁tıp	-5440
rafik	-5441
ülent	-5442
▁Ordu	-5443
▁takv	-5444
larken	-5445
suzluk	-5446
▁Gülen	-5447
▁Karşı	-5448
▁duvar	-5449
▁gönül	-5450
▁harit	-5451
ansiyon	-5452
▁adalet	-5453
▁kadros	-5454
▁karara	-5455
▁reform	-5456
▁sporcu	-5457
▁Meclisi	-5458
▁benzeri	-5459
▁davanın	-5460
▁ihtimal	-5461
▁incelen	-5462
▁onların	-5463
▁çekerek	-5464
▁edilerek	-5465
▁farkında	-5466
▁istikrar	-5467
▁edeceğini	-5468
▁olmayacak	-5469
▁yanıtladı	-5470
SS	-5471
-20	-5472
ave	-5473
ilme	-5474
lini	-5475
▁Jam	-5476
▁tır	-5477
▁şub	-5478
▁kızı	-5479
▁umut	-5480
▁Barış	-5481
▁Putin	-5482
▁fizik	-5483
▁kaybı	-5484
▁yeter	-5485
▁Özbek	-5486
ürriyet	-5487
▁Afrika	-5488
▁Bozdağ	-5489
▁Cengiz	-5490
▁bayrak	-5491
▁bağlan	-5492
▁fabrik	-5493
indistan	-5494
laştırma	-5495
▁Denizli	-5496
▁bıraktı	-5497
▁kıyafet	-5498
▁sürdüğü	-5499
▁teklifi	-5500
ebileceği	-5501
▁Başkanlı	-5502
▁Vatandaş	-5503
▁askerlik	-5504
▁mühendis	-5505
▁Bursaspor	-5506
▁yönetiminin	-5507
BC	-5508
ia	-5509
ico	-5510
iti	-5511
▁For	-5512
▁Yah	-5513
▁kök	-5514
▁min	-5515
▁İnş	-5516
lardı	-5517
▁Arda	-5518
▁Günü	-5519
▁Işık	-5520
▁Onun	-5521
▁Yazı	-5522
▁atık	-5523
▁dahi	-5524
▁dolu	-5525
eciler	-5526
lenmiş	-5527
▁2018'	-5528
▁kısmı	-5529
▁yeşil	-5530
▁şoför	-5531
leyerek	-5532
▁Bülent	-5533
▁bölümü	-5534
▁sigort	-5535
▁yoktur	-5536
larımızı	-5537
▁Avustur	-5538
▁Belçika	-5539
▁alacağı	-5540
▁liralık	-5541
▁olurken	-5542
▁ihtiyacı	-5543
▁kilogram	-5544
▁vermişti	-5545
▁ülkelerin	-5546
▁açıklaması	-5547
▁gösterdiği	-5548
▁gerçekleşen	-5549
BA	-5550
nes	-5551
▁Pa	-5552
▁ah	-5553
ubay	-5554
▁Met	-5555
▁Soy	-5556
▁Yat	-5557
▁şef	-5558
▁Tabi	-5559
▁Yurt	-5560
▁Zirv	-5561
▁meme	-5562
▁stat	-5563
▁uyan	-5564
▁verg	-5565
▁ışık	-5566
ümüzde	-5567
▁Suriy	-5568
▁boyut	-5569
▁Çevre	-5570
▁İlçesi	-5571
eceğimiz	-5572
▁birliği	-5573
▁kendine	-5574
▁koordin	-5575
▁platform	-5576
▁Amerikalı	-5577
▁avukatları	-5578
▁deplasmanda	-5579
▁değişikliği	-5580
nü	-5581
▁w	-5582
fik	-5583
gah	-5584
iir	-5585
▁53	-5586
▁DE	-5587
okol	-5588
▁Maç	-5589
▁Mir	-5590
▁Mün	-5591
▁kup	-5592
▁şiş	-5593
dıköy	-5594
imini	-5595
odrum	-5596
▁olun	-5597
▁ölen	-5598
jantin	-5599
lıklar	-5600
▁Balık	-5601
▁Güzel	-5602
▁almış	-5603
▁beden	-5604
▁halkı	-5605
▁kitab	-5606
▁yatır	-5607
lamanın	-5608
eleriyle	-5609
larımıza	-5610
ternatif	-5611
▁Program	-5612
▁ifadesi	-5613
▁kararın	-5614
▁sağlaya	-5615
▁yürüten	-5616
▁Şanlıur	-5617
▁Bunların	-5618
▁bekliyor	-5619
▁oyuncusu	-5620
▁etkisiyle	-5621
▁sorunları	-5622
▁gönderilen	-5623
--	-5624
IR	-5625
Sİ	-5626
öp	-5627
▁x	-5628
▁56	-5629
▁6.	-5630
▁Kaş	-5631
▁biy	-5632
eğini	-5633
ildik	-5634
▁alev	-5635
▁elem	-5636
▁fırt	-5637
▁katk	-5638
▁muay	-5639
oskova	-5640
▁Adliy	-5641
▁Yayın	-5642
▁dağıt	-5643
▁döviz	-5644
▁okula	-5645
▁sıkış	-5646
▁vitam	-5647
▁vücut	-5648
▁Uzmanı	-5649
▁göreve	-5650
▁iyileş	-5651
▁çocuğu	-5652
▁Şüphel	-5653
▁çıkarak	-5654
▁Pakistan	-5655
▁cenazesi	-5656
▁dönüştür	-5657
▁tamamlan	-5658
▁Hindistan	-5659
▁itibariyle	-5660
▁Başbakanlık	-5661
▁Şampiyonası	-5662
ks	-5663
ich	-5664
int	-5665
sit	-5666
yiz	-5667
yım	-5668
zer	-5669
▁43	-5670
celi	-5671
eker	-5672
▁Hem	-5673
aması	-5674
erkel	-5675
▁Dağı	-5676
▁Kent	-5677
▁Köpr	-5678
▁başı	-5679
▁form	-5680
▁Çift	-5681
opagan	-5682
▁2016'	-5683
▁Afgan	-5684
▁aktif	-5685
▁esnaf	-5686
▁üyeli	-5687
beyazlı	-5688
▁sitesi	-5689
▁İşleri	-5690
ulduğunu	-5691
▁Hakları	-5692
▁Moskova	-5693
▁Sistemi	-5694
▁artarak	-5695
▁mücadel	-5696
▁alanlarda	-5697
▁demokrasi	-5698
▁motosiklet	-5699
▁otomobilin	-5700
ST	-5701
dy	-5702
Baş	-5703
ıya	-5704
▁0,	-5705
anet	-5706
cuma	-5707
limp	-5708
oter	-5709
reti	-5710
▁600	-5711
▁Cel	-5712
▁anı	-5713
▁sıf	-5714
▁tac	-5715
▁teb	-5716
▁yiy	-5717
▁alıp	-5718
▁tipi	-5719
elikli	-5720
eyerek	-5721
ilerde	-5722
liliği	-5723
▁Bütün	-5724
▁Hayat	-5725
▁Selah	-5726
▁kırık	-5727
▁sahne	-5728
▁tanış	-5729
▁yönde	-5730
lerdeki	-5731
malarda	-5732
▁Olayla	-5733
▁cerrah	-5734
▁piyasa	-5735
▁ülkeye	-5736
ısındaki	-5737
▁görüştü	-5738
▁kapasit	-5739
▁kurtarı	-5740
▁yenilen	-5741
▁önceden	-5742
▁örgütün	-5743
▁Portekiz	-5744
▁başlıyor	-5745
▁başından	-5746
▁bilimsel	-5747
▁Cumartesi	-5748
▁öğrencisi	-5749
▁Geçtiğimiz	-5750
▁kaldırılan	-5751
▁kendisinin	-5752
▁çalışmalarının	-5753
9'	-5754
▁:	-5755
ATO	-5756
iri	-5757
str	-5758
▁4'	-5759
▁Ha	-5760
▁Mc	-5761
▁TO	-5762
afaz	-5763
ılıp	-5764
▁196	-5765
▁Dep	-5766
▁Hey	-5767
▁Med	-5768
▁Sch	-5769
▁Sil	-5770
▁çök	-5771
lamış	-5772
▁Toto	-5773
▁imha	-5774
▁obez	-5775
alesef	-5776
▁Halil	-5777
▁dolaş	-5778
▁duyar	-5779
▁kalma	-5780
▁kıyas	-5781
▁uçağı	-5782
▁Özgür	-5783
▁Gökhan	-5784
▁Merkel	-5785
▁dışına	-5786
▁faktör	-5787
▁olayda	-5788
▁puanla	-5789
▁turnuv	-5790
▁Öcalan	-5791
▁Osmanlı	-5792
▁hastane	-5793
▁oynayan	-5794
▁Çalışma	-5795
▁çıkması	-5796
▁Ortadoğu	-5797
▁karakter	-5798
▁kimsenin	-5799
▁olayları	-5800
▁ücretsiz	-5801
▁Şampiyonlar	-5802
▁gazetecilerin	-5803
TL	-5804
ate	-5805
ebi	-5806
uku	-5807
ydi	-5808
ört	-5809
▁(5	-5810
▁İk	-5811
iliş	-5812
unus	-5813
▁Gar	-5814
▁Yağ	-5815
▁ani	-5816
▁kıl	-5817
▁piş	-5818
▁Şır	-5819
jital	-5820
ğınca	-5821
▁Medi	-5822
▁ilde	-5823
▁tane	-5824
ımıyla	-5825
▁kanıt	-5826
▁metro	-5827
▁tarif	-5828
▁yapar	-5829
▁Enstit	-5830
▁Koruma	-5831
▁mektup	-5832
▁düzenli	-5833
▁eğitimi	-5834
duklarını	-5835
▁propagan	-5836
▁ettikleri	-5837
ladıklarını	-5838
▁bulunmuştu	-5839
▁inanıyorum	-5840
▁sürdürüyor	-5841
▁çevresinde	-5842
▁gazetesinin	-5843
-7	-5844
”,	-5845
▁)	-5846
ata	-5847
ezu	-5848
▁Ju	-5849
ABER	-5850
▁Adı	-5851
▁Liv	-5852
▁Sig	-5853
▁kuy	-5854
▁çif	-5855
hisar	-5856
▁2007	-5857
▁arab	-5858
▁ocak	-5859
amıyor	-5860
ceğini	-5861
▁Danış	-5862
▁Siyas	-5863
▁Yavuz	-5864
▁tanıt	-5865
▁verir	-5866
▁çıkma	-5867
▁cesedi	-5868
▁görmek	-5869
▁kalıcı	-5870
▁onları	-5871
▁sergil	-5872
▁süresi	-5873
▁Şırnak	-5874
üldüğünü	-5875
▁Gençlik	-5876
▁Hakkari	-5877
▁Hükümet	-5878
▁Malatya	-5879
▁bilgisi	-5880
▁geçerli	-5881
▁kardeşi	-5882
▁kişisel	-5883
▁ribaunt	-5884
▁sözcüsü	-5885
▁devletin	-5886
▁bölgedeki	-5887
▁düzenledi	-5888
▁getirerek	-5889
▁olduğumuz	-5890
▁yürürlüğe	-5891
▁çıkarılan	-5892
▁Şanlıurfa	-5893
HK	-5894
kon	-5895
▁1'	-5896
▁Th	-5897
else	-5898
rede	-5899
tisi	-5900
▁Kol	-5901
▁Pap	-5902
▁işe	-5903
▁şer	-5904
düncü	-5905
erkes	-5906
veren	-5907
▁cuma	-5908
▁dizi	-5909
▁yedi	-5910
▁şeyi	-5911
mızılı	-5912
▁Ermen	-5913
▁Gazze	-5914
▁HABER	-5915
▁James	-5916
▁adeta	-5917
▁arttı	-5918
▁bağır	-5919
▁krizi	-5920
▁soğuk	-5921
▁virüs	-5922
▁insani	-5923
▁oturan	-5924
▁öldüğü	-5925
▁Dairesi	-5926
▁böylece	-5927
▁insanın	-5928
▁sınırlı	-5929
▁talimat	-5930
ilerinden	-5931
▁Birleşik	-5932
▁sağlıyor	-5933
▁sözleşme	-5934
▁sürdürdü	-5935
▁uyarınca	-5936
▁yalnızca	-5937
▁yararlan	-5938
▁Komutanlı	-5939
▁hazırladığı	-5940
▁değerlendirdi	-5941
fe	-5942
rü	-5943
Bur	-5944
düz	-5945
eyt	-5946
oft	-5947
▁se	-5948
ayiş	-5949
dışı	-5950
erry	-5951
teri	-5952
▁Mas	-5953
▁Tab	-5954
▁inf	-5955
layıp	-5956
▁deng	-5957
▁duyg	-5958
▁eğer	-5959
▁gram	-5960
▁irti	-5961
▁tarz	-5962
▁çoğu	-5963
▁ödem	-5964
lerdir	-5965
▁Hukuk	-5966
▁Parkı	-5967
▁Taraf	-5968
▁Tarım	-5969
▁belki	-5970
▁diyal	-5971
▁döndü	-5972
▁kateg	-5973
▁rakib	-5974
▁uğraş	-5975
▁yakal	-5976
▁yatak	-5977
▁Müzesi	-5978
▁Venezu	-5979
▁analiz	-5980
▁baskın	-5981
▁birisi	-5982
▁duruma	-5983
▁sahada	-5984
▁yaşama	-5985
▁yukarı	-5986
▁yıllar	-5987
ayolları	-5988
▁değinen	-5989
▁endeksi	-5990
▁gittiği	-5991
▁kimliği	-5992
▁sanığın	-5993
▁beslenme	-5994
▁sayısında	-5995
▁yönettiği	-5996
.7	-5997
10	-5998
RT	-5999
.30	-6000
ABD	-6001
hil	-6002
ses	-6003
uta	-6004
▁04	-6005
▁Be	-6006
▁ta	-6007
olos	-6008
▁Cey	-6009
▁kus	-6010
artal	-6011
kları	-6012
▁serg	-6013
▁Turan	-6014
▁duygu	-6015
▁ordus	-6016
▁Çiçek	-6017
▁çağrı	-6018
▁şahıs	-6019
▁onlara	-6020
▁reklam	-6021
▁saniye	-6022
▁talima	-6023
lerimizi	-6024
▁gelenek	-6025
▁hizmeti	-6026
▁şarkıcı	-6027
lerimizin	-6028
▁Albayrak	-6029
▁Arjantin	-6030
▁Suçlarla	-6031
▁olacağız	-6032
▁sürücüsü	-6033
▁yakından	-6034
▁yerinden	-6035
▁örgütüne	-6036
▁saldırgan	-6037
▁yapacağız	-6038
▁Başsavcılı	-6039
▁Demokratik	-6040
▁alternatif	-6041
▁sorumluluk	-6042
▁verilerine	-6043
EO	-6044
Kar	-6045
ney	-6046
oya	-6047
▁78	-6048
▁TC	-6049
adet	-6050
elli	-6051
illa	-6052
nağı	-6053
▁Mon	-6054
▁Naz	-6055
▁YPG	-6056
▁the	-6057
▁tor	-6058
müyor	-6059
tihar	-6060
ukuki	-6061
ımızı	-6062
▁Akın	-6063
▁Turg	-6064
▁evin	-6065
▁mült	-6066
▁onur	-6067
▁rady	-6068
▁Başak	-6069
▁ertel	-6070
▁etraf	-6071
▁eğlen	-6072
▁fikir	-6073
▁harca	-6074
▁kalın	-6075
▁mezar	-6076
▁mezun	-6077
▁vuruş	-6078
▁yolun	-6079
bilmesi	-6080
likleri	-6081
▁Servis	-6082
▁değeri	-6083
▁gitmek	-6084
▁günden	-6085
▁kamera	-6086
▁otopsi	-6087
▁Şubesi	-6088
▁Terörle	-6089
▁almıştı	-6090
▁girdiği	-6091
▁haberde	-6092
▁sürüldü	-6093
▁tanıtım	-6094
▁gazeteci	-6095
▁olmaması	-6096
▁yaparken	-6097
▁yapılmış	-6098
▁fiyatları	-6099
abilirsiniz	-6100
▁ekiplerine	-6101
▁temsilcisi	-6102
',	-6103
FF	-6104
YK	-6105
ht	-6106
İn	-6107
▁X	-6108
ASA	-6109
dil	-6110
ell	-6111
ian	-6112
kes	-6113
▁85	-6114
▁Eb	-6115
▁Na	-6116
▁af	-6117
▁uc	-6118
rağı	-6119
▁mür	-6120
sıyla	-6121
▁Edin	-6122
▁Edir	-6123
▁Mali	-6124
▁anti	-6125
▁aran	-6126
▁edip	-6127
▁kazı	-6128
▁klas	-6129
anyahu	-6130
ınıyor	-6131
▁Erdem	-6132
▁Erkek	-6133
▁Sabah	-6134
▁Stadı	-6135
▁katlı	-6136
▁yaşlı	-6137
▁öğret	-6138
stagram	-6139
▁bunlar	-6140
▁ihbarı	-6141
▁raporu	-6142
▁sandık	-6143
▁yanına	-6144
▁yaşadı	-6145
▁buradan	-6146
▁gözaltı	-6147
▁ilgilen	-6148
▁vererek	-6149
▁müzakere	-6150
▁yerleşim	-6151
▁Basketbol	-6152
▁neredeyse	-6153
▁haftasında	-6154
▁hastaların	-6155
▁arkadaşları	-6156
▁olabileceği	-6157
▁yakalanması	-6158
▁yönetimindeki	-6159
+1	-6160
/0	-6161
PDY	-6162
azz	-6163
ras	-6164
zan	-6165
▁57	-6166
▁58	-6167
itan	-6168
iyiz	-6169
▁700	-6170
▁Ulu	-6171
▁fen	-6172
▁key	-6173
▁mit	-6174
▁sel	-6175
▁tör	-6176
memiz	-6177
onsor	-6178
ılmak	-6179
▁Azer	-6180
▁NATO	-6181
▁bütç	-6182
▁eriş	-6183
▁ters	-6184
▁Ünlü	-6185
eceğim	-6186
esince	-6187
▁Fırat	-6188
▁Manch	-6189
▁Terim	-6190
▁bazen	-6191
▁bitki	-6192
▁ikili	-6193
▁koydu	-6194
▁zehir	-6195
▁şaşır	-6196
▁başbak	-6197
▁müşter	-6198
▁taşıma	-6199
▁biliyor	-6200
▁ittifak	-6201
▁Hastalık	-6202
▁Kaymakam	-6203
▁piyasaya	-6204
▁protokol	-6205
▁ülkeleri	-6206
▁Venezuela	-6207
▁canlandır	-6208
▁sürecinde	-6209
▁vatandaşı	-6210
▁yaşandığı	-6211
▁düzenleyen	-6212
▁parlamento	-6213
▁görevlendir	-6214
12	-6215
OS	-6216
wa	-6217
enn	-6218
ubu	-6219
vat	-6220
▁AŞ	-6221
▁Op	-6222
▁öt	-6223
bank	-6224
kent	-6225
land	-6226
▁10'	-6227
▁Hır	-6228
▁oğl	-6229
bette	-6230
emedi	-6231
pınar	-6232
▁Aziz	-6233
▁Turk	-6234
▁açan	-6235
▁şifr	-6236
bilmek	-6237
cıları	-6238
▁Basın	-6239
▁Düzen	-6240
▁Günay	-6241
▁Kadir	-6242
▁aşama	-6243
▁enerj	-6244
▁gurur	-6245
▁işgal	-6246
▁köpek	-6247
▁nöbet	-6248
▁verme	-6249
▁ödülü	-6250
▁Şehir	-6251
▁Oyuncu	-6252
▁kentin	-6253
▁toplan	-6254
limpiyat	-6255
▁Kadıköy	-6256
▁Sakarya	-6257
▁anlamda	-6258
▁istendi	-6259
▁korumak	-6260
▁olanlar	-6261
▁raporda	-6262
▁sürecin	-6263
▁sürülen	-6264
▁vermeye	-6265
▁çekilen	-6266
alarından	-6267
▁araçları	-6268
▁dikkatli	-6269
▁kararına	-6270
▁oranının	-6271
▁yerlerde	-6272
▁Avusturya	-6273
▁Pazartesi	-6274
▁oyuncunun	-6275
▁sahipliği	-6276
▁hükümetinin	-6277
▁profesyonel	-6278
Dk	-6279
Kİ	-6280
dün	-6281
ele	-6282
fan	-6283
ora	-6284
▁Ho	-6285
FETÖ	-6286
maye	-6287
tika	-6288
ukur	-6289
usal	-6290
▁Mem	-6291
▁Nev	-6292
▁War	-6293
▁hoş	-6294
▁kok	-6295
▁çöp	-6296
▁Şam	-6297
memek	-6298
▁Aile	-6299
▁dini	-6300
▁hedi	-6301
▁kurş	-6302
▁veri	-6303
elidir	-6304
iminin	-6305
▁Yaşar	-6306
▁eşlik	-6307
▁idari	-6308
▁olmas	-6309
▁Meteor	-6310
▁gergin	-6311
▁memuru	-6312
▁sanatç	-6313
▁ölçüde	-6314
▁adaylar	-6315
▁başlaya	-6316
▁gidecek	-6317
▁kayıtlı	-6318
▁savunan	-6319
▁seçenek	-6320
▁yükselt	-6321
▁Komisyon	-6322
▁finansal	-6323
▁savcılık	-6324
▁Çarşamba	-6325
▁Instagram	-6326
▁antrenman	-6327
▁olmasının	-6328
▁patlayıcı	-6329
▁Manchester	-6330
▁bünyesinde	-6331
▁söylemişti	-6332
▁oluşturduğu	-6333
▁tarihlerinde	-6334
▁şüphelilerin	-6335
15	-6336
ie	-6337
▁/	-6338
nci	-6339
ors	-6340
rom	-6341
▁72	-6342
▁74	-6343
▁bl	-6344
▁hâ	-6345
siye	-6346
ıbbi	-6347
▁Kes	-6348
▁Kuş	-6349
▁dam	-6350
▁egz	-6351
▁hoc	-6352
▁Şük	-6353
▁Alev	-6354
▁eğil	-6355
▁morg	-6356
▁topu	-6357
ilerle	-6358
▁Odası	-6359
▁Ortak	-6360
▁adamı	-6361
▁aktiv	-6362
▁bilen	-6363
▁bütçe	-6364
▁maddi	-6365
▁yarım	-6366
▁Bodrum	-6367
▁Mahmut	-6368
▁buraya	-6369
▁hayati	-6370
▁sebebi	-6371
▁vermiş	-6372
▁biçimde	-6373
▁ekonomi	-6374
▁kaynağı	-6375
▁parçası	-6376
▁sigorta	-6377
▁toprağa	-6378
ılacağını	-6379
▁Kahraman	-6380
▁Perşembe	-6381
▁Yönetimi	-6382
▁başlıklı	-6383
▁sürdüren	-6384
mayacağını	-6385
▁Netanyahu	-6386
▁anlaşmaya	-6387
▁aylarında	-6388
▁birleştir	-6389
▁dışındaki	-6390
▁eşliğinde	-6391
▁getirdiği	-6392
▁görüyoruz	-6393
▁merkezine	-6394
▁suretiyle	-6395
▁örgütünün	-6396
▁ülkelerde	-6397
▁genellikle	-6398
▁uygulamaya	-6399
▁başladığını	-6400
▁suçlarından	-6401
▁yakınlarında	-6402
-8	-6403
.9	-6404
yn	-6405
İK	-6406
LER	-6407
ger	-6408
ste	-6409
▁62	-6410
▁Lu	-6411
ikat	-6412
osna	-6413
ıklı	-6414
▁Pas	-6415
▁Sat	-6416
▁Tuğ	-6417
▁göl	-6418
▁sim	-6419
▁ves	-6420
attin	-6421
▁Roma	-6422
▁katı	-6423
▁size	-6424
▁tank	-6425
▁vize	-6426
tansiy	-6427
tıktan	-6428
▁Katar	-6429
▁ayakk	-6430
▁ayına	-6431
▁demir	-6432
▁gecik	-6433
▁ihraç	-6434
▁kurtul	-6435
▁rüzgar	-6436
▁teşvik	-6437
▁dijital	-6438
▁diliyor	-6439
▁kategor	-6440
▁plastik	-6441
▁sunulan	-6442
▁sunuyor	-6443
▁ulaştır	-6444
▁yağışlı	-6445
▁yitirdi	-6446
▁Dünyanın	-6447
▁Fetullah	-6448
▁başlandı	-6449
▁çalıştır	-6450
▁özelliği	-6451
▁sahasında	-6452
▁sürecinin	-6453
▁Afganistan	-6454
▁hatırlatan	-6455
▁karşılıklı	-6456
▁saldırının	-6457
▁vurgulandı	-6458
▁yayımlandı	-6459
▁karşılığında	-6460
1'	-6461
lib	-6462
oni	-6463
ski	-6464
▁id	-6465
afir	-6466
izde	-6467
liam	-6468
umun	-6469
▁Ail	-6470
▁adr	-6471
▁bol	-6472
imark	-6473
terör	-6474
uyucu	-6475
▁Kork	-6476
▁bina	-6477
▁kons	-6478
baycan	-6479
▁Orhan	-6480
▁onlar	-6481
▁riski	-6482
▁Doktor	-6483
▁Edirne	-6484
▁endişe	-6485
▁gelmiş	-6486
▁hukuki	-6487
▁senary	-6488
▁slogan	-6489
▁sürece	-6490
▁ulaşan	-6491
▁çarptı	-6492
▁Kocaeli	-6493
▁ayrılan	-6494
▁havalim	-6495
▁kulübün	-6496
▁trafiğe	-6497
ıldığında	-6498
▁Organize	-6499
▁bölgenin	-6500
▁istasyon	-6501
▁sorunlar	-6502
▁Güneydoğu	-6503
▁geçirdiği	-6504
▁konferans	-6505
▁önlemleri	-6506
▁uzaklaştır	-6507
▁üyelerinin	-6508
▁iddianamede	-6509
▁öngörülüyor	-6510
▁soruşturması	-6511
UR	-6512
ick	-6513
old	-6514
ole	-6515
pol	-6516
imar	-6517
jans	-6518
luğa	-6519
ster	-6520
tıcı	-6521
▁2-1	-6522
▁Tam	-6523
▁fer	-6524
▁kod	-6525
tının	-6526
▁Kamp	-6527
▁depo	-6528
▁diya	-6529
▁kala	-6530
▁medy	-6531
▁özgü	-6532
▁şehr	-6533
uyorum	-6534
ıntılı	-6535
▁2015'	-6536
▁2017'	-6537
▁Selim	-6538
▁Times	-6539
▁boşan	-6540
▁izlen	-6541
▁kaçın	-6542
▁kenar	-6543
▁köprü	-6544
▁sahil	-6545
▁sürpr	-6546
▁zemin	-6547
ileştir	-6548
imizden	-6549
lamalar	-6550
▁Ajansı	-6551
▁Bunlar	-6552
▁Enerji	-6553
▁Kongre	-6554
▁Olayın	-6555
▁sevgil	-6556
ülebilir	-6557
▁başardı	-6558
▁binanın	-6559
▁bugünkü	-6560
ladıkları	-6561
▁Disiplin	-6562
▁başladık	-6563
▁hastanın	-6564
▁numaralı	-6565
▁sıcaklık	-6566
▁arkasında	-6567
▁psikolojik	-6568
▁sitesinden	-6569
▁aldıklarını	-6570
▁yaptıklarını	-6571
▁milletvekilleri	-6572
,2	-6573
,6	-6574
ice	-6575
ood	-6576
örf	-6577
▁8'	-6578
▁87	-6579
▁KK	-6580
▁No	-6581
cell	-6582
egen	-6583
ekom	-6584
itik	-6585
ovic	-6586
çisi	-6587
▁1,5	-6588
▁800	-6589
▁Div	-6590
▁Hep	-6591
▁Teş	-6592
▁Mark	-6593
▁Uzay	-6594
▁ayar	-6595
▁keşf	-6596
▁mide	-6597
▁suyu	-6598
▁İmam	-6599
▁Bilgi	-6600
▁Dilek	-6601
▁Temel	-6602
▁besin	-6603
▁beğen	-6604
▁halka	-6605
▁kenti	-6606
▁planı	-6607
▁sizin	-6608
▁yüzey	-6609
▁Özcan	-6610
ebilmek	-6611
ecekler	-6612
isinden	-6613
▁Micros	-6614
▁grubun	-6615
▁hayatı	-6616
▁kırsal	-6617
▁yerden	-6618
▁Koordin	-6619
▁dönemin	-6620
▁dönüşüm	-6621
▁geçerek	-6622
▁isimler	-6623
▁olaylar	-6624
▁sponsor	-6625
▁Örneğin	-6626
▁Öğretim	-6627
▁Valiliği	-6628
▁gerektir	-6629
▁kampanya	-6630
▁mutluluk	-6631
▁tutuksuz	-6632
▁yetersiz	-6633
meyeceğini	-6634
▁aldıkları	-6635
▁gördüğünü	-6636
▁yürüttüğü	-6637
▁Soruşturma	-6638
▁gösterilen	-6639
▁istihbarat	-6640
▁görevlileri	-6641
▁verildiğini	-6642
▁Belediyespor	-6643
▁gerçekleştirdi	-6644
AD	-6645
▁%	-6646
The	-6647
led	-6648
mda	-6649
mes	-6650
mos	-6651
nca	-6652
ınç	-6653
▁7.	-6654
feri	-6655
gazi	-6656
▁Dal	-6657
▁Nih	-6658
▁TSK	-6659
▁YÖK	-6660
▁eşy	-6661
▁pah	-6662
▁Emek	-6663
▁Okul	-6664
▁büyü	-6665
▁gücü	-6666
▁Hatay	-6667
▁Kaçak	-6668
▁bilir	-6669
▁birer	-6670
▁bulgu	-6671
▁gelip	-6672
▁yaşat	-6673
▁ajansı	-6674
▁birden	-6675
▁gittik	-6676
▁ilginç	-6677
▁sanayi	-6678
▁verdik	-6679
▁yılına	-6680
amayacak	-6681
lacivert	-6682
▁Polonya	-6683
▁demişti	-6684
▁karşıtı	-6685
▁minibüs	-6686
▁penaltı	-6687
▁ailesine	-6688
▁dördüncü	-6689
▁gönderdi	-6690
▁haftalık	-6691
▁takdirde	-6692
▁kararının	-6693
▁katılacak	-6694
▁kullanımı	-6695
▁uygulaması	-6696
▁yapılacağı	-6697
▁ilçesindeki	-6698
HY	-6699
LG	-6700
ân	-6701
İş	-6702
avi	-6703
itt	-6704
ore	-6705
sar	-6706
tre	-6707
▁09	-6708
▁76	-6709
▁Sc	-6710
▁Yü	-6711
.30'	-6712
ayır	-6713
dere	-6714
ezer	-6715
omut	-6716
steş	-6717
▁120	-6718
▁Ana	-6719
▁Güç	-6720
▁Sun	-6721
▁zih	-6722
▁Çor	-6723
▁Şiş	-6724
gören	-6725
inizi	-6726
▁DEAŞ	-6727
▁güne	-6728
▁mesl	-6729
▁özür	-6730
lamayı	-6731
ularak	-6732
uyoruz	-6733
vekili	-6734
▁Abdul	-6735
▁Bulut	-6736
▁Burak	-6737
▁Tatlı	-6738
▁aydın	-6739
▁firma	-6740
▁işbir	-6741
▁kaydı	-6742
▁kemik	-6743
▁netic	-6744
▁zorlu	-6745
lığında	-6746
▁Bayrak	-6747
▁Hayvan	-6748
▁konuyu	-6749
▁market	-6750
▁modeli	-6751
▁seviye	-6752
▁tabanc	-6753
▁vadeli	-6754
melerini	-6755
▁akciğer	-6756
▁değişim	-6757
▁irtibat	-6758
▁mekaniz	-6759
▁yaşıyor	-6760
▁Danimark	-6761
▁Mühendis	-6762
▁adlandır	-6763
▁büyüklüğ	-6764
▁halkının	-6765
▁yakalama	-6766
▁şiddetli	-6767
▁Microsoft	-6768
▁araçların	-6769
▁tehlikeli	-6770
▁Azerbaycan	-6771
▁listesinde	-6772
▁tamamlandı	-6773
▁Müdürlüğüne	-6774
▁konusundaki	-6775
▁çalışıyoruz	-6776
▁vurgulayarak	-6777
Her	-6778
ain	-6779
bor	-6780
cra	-6781
eda	-6782
gat	-6783
raz	-6784
▁61	-6785
▁67	-6786
▁CN	-6787
▁He	-6788
iyim	-6789
line	-6790
ımın	-6791
▁13.	-6792
▁2-0	-6793
▁soh	-6794
▁tey	-6795
▁İHA	-6796
lıkta	-6797
▁Adam	-6798
▁Bara	-6799
▁Umut	-6800
▁erdi	-6801
▁gözy	-6802
▁sıkı	-6803
elikte	-6804
ilenin	-6805
▁Bakır	-6806
▁Karat	-6807
▁Kulüp	-6808
▁bahse	-6809
▁metal	-6810
▁vekil	-6811
▁çizen	-6812
▁şidde	-6813
lamayan	-6814
▁Kartal	-6815
▁Valisi	-6816
▁düşman	-6817
▁gümrük	-6818
▁kritik	-6819
▁niteli	-6820
▁oturum	-6821
▁yansıt	-6822
▁ayrılık	-6823
▁ayrıntı	-6824
▁rekabet	-6825
▁tarihli	-6826
▁yılları	-6827
▁Bakanlar	-6828
▁miktarda	-6829
▁yapmıştı	-6830
▁ülkedeki	-6831
▁Habertürk	-6832
▁anlatıyor	-6833
▁saldırıya	-6834
▁ülkemizde	-6835
▁bakımından	-6836
▁Meteoroloji	-6837
▁araştırmada	-6838
▁çalıştığını	-6839
▁öğrencilere	-6840
▁çalışmaların	-6841
▁değerlendiren	-6842
MA	-6843
sh	-6844
-10	-6845
set	-6846
şen	-6847
▁68	-6848
▁Dk	-6849
▁be	-6850
çalı	-6851
▁Rak	-6852
▁cil	-6853
▁köş	-6854
▁saf	-6855
▁ten	-6856
▁Ülk	-6857
ceğiz	-6858
ektaş	-6859
ulmaz	-6860
▁Avcı	-6861
▁KKTC	-6862
▁Kral	-6863
▁Onur	-6864
▁abon	-6865
▁aram	-6866
▁ağaç	-6867
▁bula	-6868
▁kong	-6869
▁ödey	-6870
▁üste	-6871
eğinin	-6872
isiyle	-6873
masyon	-6874
▁2014'	-6875
▁Sanık	-6876
▁Yarış	-6877
▁aldık	-6878
▁cadde	-6879
▁gelin	-6880
▁irade	-6881
▁niyet	-6882
▁yolda	-6883
▁İşlet	-6884
▁Barack	-6885
▁Berlin	-6886
▁Levent	-6887
▁gündür	-6888
▁olanak	-6889
▁rahmet	-6890
▁sırala	-6891
▁uzmanı	-6892
▁uçağın	-6893
mesinden	-6894
▁Tunceli	-6895
▁anayasa	-6896
▁beklent	-6897
▁düzeyde	-6898
▁edeceği	-6899
▁gelişme	-6900
▁ortamda	-6901
▁sağladı	-6902
▁Turkcell	-6903
▁bireysel	-6904
▁tansiyon	-6905
▁özgürlük	-6906
▁Başakşehir	-6907
▁bekliyoruz	-6908
▁desteğiyle	-6909
▁göstererek	-6910
▁sektöründe	-6911
▁öğrencinin	-6912
▁şampiyonluk	-6913
,7	-6914
Sen	-6915
api	-6916
rab	-6917
çar	-6918
ırh	-6919
.000	-6920
onuç	-6921
ımda	-6922
▁Cin	-6923
▁Str	-6924
▁kel	-6925
▁yör	-6926
▁şok	-6927
lının	-6928
üşvet	-6929
▁2004	-6930
▁Büro	-6931
▁FIFA	-6932
▁Yang	-6933
▁başk	-6934
▁krip	-6935
▁metr	-6936
▁çaba	-6937
▁İnan	-6938
▁Şeri	-6939
alarak	-6940
cistan	-6941
lüğünü	-6942
omobil	-6943
▁Sinan	-6944
▁apart	-6945
▁belde	-6946
▁hekim	-6947
▁madal	-6948
▁roman	-6949
iyorlar	-6950
malıyız	-6951
▁Asayiş	-6952
▁Macron	-6953
▁Volkan	-6954
▁atılan	-6955
▁basına	-6956
▁dediği	-6957
▁konuya	-6958
▁kriter	-6959
▁sınava	-6960
▁tescil	-6961
isindeki	-6962
▁anımsat	-6963
▁geçtiği	-6964
▁sezonun	-6965
▁çıkaran	-6966
▁öldürül	-6967
▁ülkeden	-6968
▁üretimi	-6969
▁İdaresi	-6970
▁Ardından	-6971
▁Gazetesi	-6972
▁dönemine	-6973
▁geleceği	-6974
▁potansiy	-6975
▁duruşmaya	-6976
▁olmadığına	-6977
▁operasyonu	-6978
▁yardımıyla	-6979
▁düşünüyoruz	-6980
AP	-6981
BB	-6982
ME	-6983
oj	-6984
dev	-6985
lex	-6986
nav	-6987
Çok	-6988
▁Fu	-6989
▁Is	-6990
▁ır	-6991
asız	-6992
iper	-6993
ukat	-6994
▁Değ	-6995
▁Kir	-6996
▁TIR	-6997
▁aşk	-6998
▁ecz	-6999
▁müh	-7000
▁mük	-7001
▁rob	-7002
▁val	-7003
emize	-7004
ıklık	-7005
▁2000	-7006
▁Hast	-7007
▁Saat	-7008
▁Uygu	-7009
▁komp	-7010
▁tepk	-7011
▁tren	-7012
▁türü	-7013
lüğüne	-7014
▁Artık	-7015
▁Hakim	-7016
▁Kilis	-7017
▁Polat	-7018
▁Savaş	-7019
▁Tabii	-7020
▁Tedav	-7021
▁Yerel	-7022
▁dönen	-7023
▁düğün	-7024
▁efsan	-7025
▁feder	-7026
▁kasab	-7027
▁köken	-7028
▁mağaz	-7029
▁neler	-7030
▁sahib	-7031
▁yakış	-7032
▁Elektr	-7033
▁Manisa	-7034
▁beraat	-7035
▁gözden	-7036
▁imzala	-7037
▁oranda	-7038
▁alırken	-7039
▁artışla	-7040
▁indirim	-7041
▁sürpriz	-7042
▁şimdiye	-7043
▁danışman	-7044
▁getirmek	-7045
▁haberler	-7046
▁kahraman	-7047
▁olmaktan	-7048
▁toplamda	-7049
▁oyuncular	-7050
▁ambulansla	-7051
▁edilmiştir	-7052
▁sisteminin	-7053
▁söyleyerek	-7054
▁yaptığımız	-7055
▁ifadelerine	-7056
DK	-7057
Er	-7058
ığ	-7059
apu	-7060
diy	-7061
işi	-7062
our	-7063
ysa	-7064
İLİ	-7065
▁5'	-7066
▁77	-7067
▁81	-7068
iyan	-7069
tosu	-7070
ırsa	-7071
▁Hil	-7072
▁Ney	-7073
▁Tes	-7074
▁Tut	-7075
▁dek	-7076
denin	-7077
incir	-7078
ındık	-7079
▁Baba	-7080
▁Efes	-7081
▁Erol	-7082
▁Hacı	-7083
▁Vali	-7084
▁füze	-7085
▁indi	-7086
▁maça	-7087
▁Duruş	-7088
▁Messi	-7089
▁Semih	-7090
▁dosya	-7091
▁kaçtı	-7092
▁komşu	-7093
▁olası	-7094
▁İhbar	-7095
lamıştı	-7096
▁Yazıcı	-7097
▁ağrısı	-7098
▁birini	-7099
▁fırlat	-7100
▁koltuğ	-7101
▁saatte	-7102
▁yetmez	-7103
▁yüzyıl	-7104
▁zorluk	-7105
▁Bölgede	-7106
▁Ekipler	-7107
▁adımlar	-7108
▁intihar	-7109
▁kalacak	-7110
▁katliam	-7111
▁mahalle	-7112
▁morguna	-7113
▁terörle	-7114
▁tüketic	-7115
▁çağrısı	-7116
▁Amirliği	-7117
▁Komitesi	-7118
▁edilemez	-7119
▁geriledi	-7120
▁kapsamlı	-7121
▁sistemin	-7122
▁yükselen	-7123
▁öldüğünü	-7124
▁istemiyle	-7125
▁saldırıyı	-7126
▁eyaletinde	-7127
▁görevinden	-7128
▁hastalığın	-7129
▁duyurusunda	-7130
▁çalışmalara	-7131
▁saatlerinden	-7132
6’	-7133
SP	-7134
ahh	-7135
ern	-7136
kun	-7137
rag	-7138
rex	-7139
sek	-7140
uzu	-7141
vil	-7142
▁63	-7143
▁66	-7144
▁Fi	-7145
▁ez	-7146
▁İt	-7147
akıt	-7148
atur	-7149
esir	-7150
rens	-7151
yurt	-7152
▁195	-7153
▁Fed	-7154
▁Mot	-7155
▁Ora	-7156
▁Zor	-7157
▁ağı	-7158
▁dis	-7159
▁mol	-7160
▁tok	-7161
▁toz	-7162
▁Çam	-7163
▁Çat	-7164
▁İLG	-7165
▁İli	-7166
luğun	-7167
▁Cami	-7168
▁Zeyn	-7169
▁imam	-7170
▁İlet	-7171
edonya	-7172
▁Engin	-7173
▁Vatan	-7174
▁alana	-7175
▁evlen	-7176
▁galip	-7177
▁gerçe	-7178
▁giyen	-7179
▁taşıt	-7180
▁tümör	-7181
▁vatan	-7182
▁yönel	-7183
▁Özkan	-7184
▁şebek	-7185
amadığı	-7186
lığıyla	-7187
▁Binali	-7188
▁Yetkil	-7189
▁dilekç	-7190
▁düzelt	-7191
▁etmeyi	-7192
▁itiraf	-7193
▁sohbet	-7194
▁üstlen	-7195
▁paralel	-7196
▁Edinilen	-7197
▁HABERLER	-7198
▁Hürriyet	-7199
▁bulunduğ	-7200
▁ekibinin	-7201
▁fiziksel	-7202
▁projenin	-7203
▁sürecine	-7204
▁anlaşması	-7205
▁esnasında	-7206
▁kalabalık	-7207
▁mahkemece	-7208
▁Selahattin	-7209
▁başkanlığı	-7210
▁nitelendir	-7211
▁partisinin	-7212
▁çağrısında	-7213
▁öğrencileri	-7214
,4	-7215
kas	-7216
kim	-7217
und	-7218
veç	-7219
uhan	-7220
ülük	-7221
ğrul	-7222
▁Ann	-7223
▁Cav	-7224
▁Koc	-7225
▁Küb	-7226
▁Kış	-7227
▁Tol	-7228
▁Tom	-7229
▁ışı	-7230
cinin	-7231
indir	-7232
▁Kaza	-7233
▁Kızı	-7234
▁Otel	-7235
▁alak	-7236
anları	-7237
ayarak	-7238
siyonu	-7239
▁Adnan	-7240
▁Angel	-7241
▁Ayhan	-7242
▁Bekir	-7243
▁Faruk	-7244
▁Japon	-7245
▁Okulu	-7246
▁Piyas	-7247
▁Zanlı	-7248
▁ettim	-7249
▁ilave	-7250
▁siber	-7251
▁tablo	-7252
▁takib	-7253
atistik	-7254
ecektir	-7255
▁Bulgar	-7256
▁Bölümü	-7257
▁Hazine	-7258
▁Salonu	-7259
▁evinin	-7260
▁eşinin	-7261
▁meteor	-7262
▁çıkarı	-7263
▁İLGİLİ	-7264
▁Raporda	-7265
▁Türkmen	-7266
▁askerin	-7267
▁gününde	-7268
▁kalıyor	-7269
▁misafir	-7270
▁vermedi	-7271
▁çevrede	-7272
▁üstünde	-7273
▁Festival	-7274
▁ayakkabı	-7275
▁belirlem	-7276
▁buluştur	-7277
▁bölgesel	-7278
▁genişlet	-7279
▁partinin	-7280
▁soruları	-7281
▁Enstitüsü	-7282
▁açıklayan	-7283
▁geçirilen	-7284
▁kurulması	-7285
▁verildiği	-7286
▁çalışmaya	-7287
▁kadınlarda	-7288
▁mevkisinde	-7289
▁yapacağını	-7290
▁kararlaştır	-7291
▁seviyesinde	-7292
▁bölgelerinde	-7293
▁karşılaşmada	-7294
▁mensuplarının	-7295
,8	-7296
2)	-7297
4)	-7298
pe	-7299
and	-7300
bas	-7301
nce	-7302
tuk	-7303
zin	-7304
▁88	-7305
▁üm	-7306
ağıt	-7307
inal	-7308
rama	-7309
▁11.	-7310
▁202	-7311
▁Ağr	-7312
▁Cev	-7313
▁Mez	-7314
▁SGK	-7315
▁Siz	-7316
▁Sol	-7317
▁TFF	-7318
▁YSK	-7319
▁Yür	-7320
▁far	-7321
▁göm	-7322
▁zan	-7323
adaki	-7324
alanı	-7325
atörü	-7326
sında	-7327
▁Ayşe	-7328
▁Mars	-7329
▁denk	-7330
▁etik	-7331
▁iken	-7332
▁ikin	-7333
▁kafa	-7334
▁usul	-7335
▁çizg	-7336
istler	-7337
osunun	-7338
portaj	-7339
▁Gümüş	-7340
▁kavuş	-7341
▁kaçan	-7342
▁keşif	-7343
▁tutul	-7344
▁uzlaş	-7345
ağından	-7346
leşmesi	-7347
▁hamile	-7348
▁harcam	-7349
▁içerik	-7350
▁memlek	-7351
▁miting	-7352
▁muayen	-7353
▁oynadı	-7354
▁sezonu	-7355
▁Haberde	-7356
▁Projesi	-7357
▁edilmek	-7358
▁imzalan	-7359
▁yazdığı	-7360
▁Uzmanlar	-7361
▁istismar	-7362
▁kontrolü	-7363
▁kullanma	-7364
▁oluşuyor	-7365
▁sonuçlar	-7366
▁İddianam	-7367
▁konularda	-7368
▁saatlerde	-7369
▁tarihinin	-7370
▁durumlarda	-7371
▁ilişkileri	-7372
▁tarihinden	-7373
▁tutuklanan	-7374
▁kaldırılması	-7375
▁kaybettiğini	-7376
,3	-7377
5)	-7378
adı	-7379
cın	-7380
düğ	-7381
eğe	-7382
top	-7383
vit	-7384
▁08	-7385
▁69	-7386
▁73	-7387
▁Ed	-7388
▁ac	-7389
acık	-7390
pool	-7391
▁Dağ	-7392
▁Ece	-7393
▁Fik	-7394
▁Göl	-7395
▁ide	-7396
▁sil	-7397
▁tık	-7398
dunun	-7399
navut	-7400
▁2002	-7401
▁2020	-7402
▁Araç	-7403
▁Belg	-7404
▁Emin	-7405
▁Emir	-7406
▁Körf	-7407
▁NASA	-7408
▁asıl	-7409
▁ağab	-7410
▁dalg	-7411
▁işin	-7412
▁köyü	-7413
▁zırh	-7414
▁Ümit	-7415
▁üstü	-7416
bistan	-7417
mosfer	-7418
▁Ercan	-7419
▁Kitap	-7420
▁Muhar	-7421
▁dokun	-7422
▁işada	-7423
▁mevzu	-7424
▁mutab	-7425
▁sabit	-7426
▁vurdu	-7427
▁yoksa	-7428
▁Çakır	-7429
aryakıt	-7430
yasının	-7431
▁Trafik	-7432
▁haksız	-7433
▁kazada	-7434
▁mahall	-7435
▁modern	-7436
▁satışı	-7437
▁seçimi	-7438
▁sorusu	-7439
▁tasarı	-7440
▁ülkeyi	-7441
▁elinden	-7442
▁patlama	-7443
▁sunduğu	-7444
▁sözleri	-7445
▁takımda	-7446
▁Adliyesi	-7447
▁belgesel	-7448
▁girişimi	-7449
▁yakaladı	-7450
▁İletişim	-7451
acaklarını	-7452
▁adayların	-7453
▁ailesinin	-7454
▁arasından	-7455
▁koşulları	-7456
▁kullanmak	-7457
▁personeli	-7458
▁duyurmuştu	-7459
▁görüntülen	-7460
▁güçlerinin	-7461
▁mücadelede	-7462
▁personelin	-7463
▁yanıtlayan	-7464
▁şüphelinin	-7465
▁katılımıyla	-7466
▁konuşmasında	-7467
▁gerçekleşecek	-7468
▁95	-7469
▁Fo	-7470
dafi	-7471
idin	-7472
unum	-7473
üzer	-7474
şten	-7475
▁20'	-7476
▁Art	-7477
▁Cor	-7478
▁Ecz	-7479
▁Tep	-7480
▁Win	-7481
▁kum	-7482
▁lay	-7483
enkul	-7484
iller	-7485
mamış	-7486
üksel	-7487
▁Alex	-7488
▁Ağrı	-7489
▁Dalı	-7490
▁Gezi	-7491
▁Sine	-7492
▁Veli	-7493
▁doğu	-7494
▁emin	-7495
▁olas	-7496
▁payı	-7497
▁prim	-7498
lerken	-7499
tuğrul	-7500
▁2010'	-7501
▁bileş	-7502
▁ceset	-7503
▁puanı	-7504
▁sürük	-7505
▁tutum	-7506
▁Avukat	-7507
▁Kaynak	-7508
▁Yüksel	-7509
▁anında	-7510
▁askıya	-7511
▁başrol	-7512
▁bedeli	-7513
▁davada	-7514
▁kaleme	-7515
▁karbon	-7516
▁takıma	-7517
▁üreten	-7518
abilmesi	-7519
ecilerin	-7520
İstanbul	-7521
ılabilir	-7522
▁Parçalı	-7523
▁altyapı	-7524
▁ertelen	-7525
▁köyünde	-7526
▁kıyasla	-7527
▁pasapor	-7528
▁söyleye	-7529
▁derecede	-7530
▁hastalar	-7531
▁yanıtını	-7532
▁yüzlerce	-7533
▁biliyoruz	-7534
▁görevlisi	-7535
▁istikamet	-7536
▁yakalanan	-7537
▁başlattığı	-7538
▁bilmiyorum	-7539
▁seçimlerde	-7540
▁yaşadığını	-7541
▁yıllarında	-7542
▁oluşturulan	-7543
▁açıklamaları	-7544
ED	-7545
-15	-7546
Dev	-7547
fat	-7548
ise	-7549
lav	-7550
lob	-7551
off	-7552
vin	-7553
öyl	-7554
▁Hu	-7555
cher	-7556
oper	-7557
urdu	-7558
yolu	-7559
▁Ast	-7560
▁Kaf	-7561
▁Pet	-7562
▁bet	-7563
▁gül	-7564
▁kef	-7565
▁sam	-7566
▁yel	-7567
▁Çel	-7568
icdan	-7569
iyonu	-7570
▁Aday	-7571
▁Clin	-7572
▁Papa	-7573
▁Peki	-7574
▁deri	-7575
▁golü	-7576
▁uyku	-7577
▁çant	-7578
elanda	-7579
iminde	-7580
luğunu	-7581
▁Doğuş	-7582
▁Ergen	-7583
▁Görev	-7584
▁Maden	-7585
▁Nihat	-7586
▁Onlar	-7587
▁aktör	-7588
▁büyüy	-7589
▁kanat	-7590
▁layık	-7591
▁menaj	-7592
▁nefes	-7593
▁suçlu	-7594
▁tabii	-7595
▁yoktu	-7596
▁İdlib	-7597
isiklet	-7598
ğındaki	-7599
▁Maliye	-7600
▁Mardin	-7601
▁bilinç	-7602
▁geldik	-7603
▁hayran	-7604
▁insanı	-7605
▁kurşun	-7606
▁mesajı	-7607
▁olmayı	-7608
▁sahaya	-7609
▁sağlam	-7610
▁Gençler	-7611
▁Zirvesi	-7612
▁alınmış	-7613
▁belirli	-7614
▁duruşma	-7615
▁seçilen	-7616
▁sürecek	-7617
▁meselesi	-7618
▁vereceği	-7619
▁Gürcistan	-7620
▁cezaevine	-7621
▁emeklilik	-7622
▁olanların	-7623
▁saldırısı	-7624
▁yolsuzluk	-7625
▁Ermenistan	-7626
▁geleneksel	-7627
▁yaralandığı	-7628
▁araştırmalar	-7629
▁görüşmelerin	-7630
▁kullanılması	-7631
19	-7632
AS	-7633
GS	-7634
:00	-7635
Rus	-7636
Ter	-7637
ozy	-7638
sağ	-7639
tek	-7640
tic	-7641
örü	-7642
▁Je	-7643
▁öy	-7644
amik	-7645
ezya	-7646
fone	-7647
işan	-7648
satı	-7649
▁1.5	-7650
▁10.	-7651
▁Air	-7652
▁Bol	-7653
▁Boy	-7654
▁Gol	-7655
▁Gre	-7656
▁Kut	-7657
▁bot	-7658
▁ısı	-7659
osunu	-7660
rexit	-7661
ğünde	-7662
▁Bilg	-7663
▁Feth	-7664
▁Köyü	-7665
▁icra	-7666
▁sözü	-7667
▁şarj	-7668
cilere	-7669
▁Arena	-7670
▁Filiz	-7671
▁cesed	-7672
▁kızın	-7673
▁mütte	-7674
▁panel	-7675
▁subay	-7676
▁sıfır	-7677
▁taciz	-7678
▁yüklü	-7679
▁ısrar	-7680
▁Şenol	-7681
melerde	-7682
▁Dursun	-7683
▁atarak	-7684
▁işlemi	-7685
▁kaleci	-7686
emeyecek	-7687
▁Saldırı	-7688
▁Telekom	-7689
▁Yatırım	-7690
▁Zelanda	-7691
▁kesinti	-7692
▁satılan	-7693
▁sermaye	-7694
▁tavsiye	-7695
▁çapında	-7696
▁çekildi	-7697
talyaspor	-7698
▁Suriyeli	-7699
▁ihtimali	-7700
▁kişilere	-7701
▁kullanıl	-7702
▁kuruluşu	-7703
▁politika	-7704
▁sanıklar	-7705
▁sayısını	-7706
▁sorgulan	-7707
▁toplumun	-7708
▁yaşından	-7709
▁ürünleri	-7710
▁şartıyla	-7711
▁başlangıç	-7712
▁bilgisini	-7713
▁transferi	-7714
▁Temsilcisi	-7715
▁oluşturuyor	-7716
▁sonuçlarına	-7717
▁çıkarıldığı	-7718
YS	-7719
FAD	-7720
PSS	-7721
iro	-7722
mik	-7723
oğu	-7724
zığ	-7725
▁(6	-7726
▁59	-7727
▁6'	-7728
▁8.	-7729
▁82	-7730
▁94	-7731
▁Ba	-7732
▁Bi	-7733
avüz	-7734
dağı	-7735
itif	-7736
oban	-7737
▁CEO	-7738
▁Ela	-7739
▁PYD	-7740
▁Pan	-7741
▁Wal	-7742
▁edi	-7743
▁lok	-7744
Bizim	-7745
bahar	-7746
meyin	-7747
▁Akar	-7748
▁Kars	-7749
▁Rıza	-7750
▁Salı	-7751
▁akıl	-7752
▁blok	-7753
▁suçu	-7754
▁sırt	-7755
▁özet	-7756
▁İliş	-7757
emiyor	-7758
▁Musul	-7759
▁Sonuç	-7760
▁Zaman	-7761
▁gruba	-7762
▁kalem	-7763
▁meyve	-7764
▁topar	-7765
▁tuttu	-7766
▁yönlü	-7767
general	-7768
odafone	-7769
ıyorlar	-7770
▁Cerrah	-7771
▁Müsteş	-7772
▁Serdar	-7773
▁artışı	-7774
▁birine	-7775
▁erişim	-7776
▁gecesi	-7777
▁muhtem	-7778
▁parmak	-7779
▁rüşvet	-7780
▁soruya	-7781
▁varlık	-7782
▁çıkmış	-7783
▁şunlar	-7784
ılmıştır	-7785
▁Cezaevi	-7786
▁Clinton	-7787
▁Samsung	-7788
▁genetik	-7789
▁hayırlı	-7790
▁kalması	-7791
▁kararlı	-7792
▁militan	-7793
▁silahla	-7794
▁sığınma	-7795
▁İrlanda	-7796
▁Ertuğrul	-7797
▁Muharrem	-7798
▁Otomobil	-7799
▁açılması	-7800
▁görevden	-7801
▁hattında	-7802
▁kaynaklı	-7803
▁olmaları	-7804
▁olmuştur	-7805
▁sürecini	-7806
▁temizlik	-7807
▁teşkilat	-7808
▁Gözaltına	-7809
▁düştüğünü	-7810
▁ilişkiler	-7811
▁sezonunda	-7812
▁sistemini	-7813
▁veriliyor	-7814
▁çevredeki	-7815
▁bölgelerde	-7816
▁kentindeki	-7817
▁noktasında	-7818
▁verdikleri	-7819
▁yardımcısı	-7820
▁şeklindeki	-7821
▁emniyetteki	-7822
▁gerektiğine	-7823
▁talimatıyla	-7824
▁uygulamalar	-7825
▁yaşandığını	-7826
▁fiyatlarının	-7827
▁hastalıkları	-7828
▁kaldırıldığı	-7829
▁kurtarılamadı	-7830
-9	-7831
?'	-7832
Yİ	-7833
wn	-7834
xy	-7835
-19	-7836
▁GB	-7837
▁Of	-7838
▁UN	-7839
anti	-7840
mece	-7841
▁Fir	-7842
▁Jon	-7843
▁Nor	-7844
▁Onu	-7845
▁THY	-7846
▁Yok	-7847
▁fes	-7848
▁iOS	-7849
▁küç	-7850
▁sıv	-7851
▁zek	-7852
▁ört	-7853
alığı	-7854
kınma	-7855
lerim	-7856
lılar	-7857
▁Char	-7858
▁List	-7859
▁Part	-7860
▁Paul	-7861
▁Prem	-7862
▁Rady	-7863
▁Yine	-7864
▁alır	-7865
▁derb	-7866
▁kahv	-7867
▁lise	-7868
▁teşh	-7869
▁İşçi	-7870
arlığı	-7871
erpool	-7872
▁Afrin	-7873
▁Durum	-7874
▁Ergün	-7875
▁Mesci	-7876
▁Proje	-7877
▁Sonra	-7878
▁Sudan	-7879
▁golle	-7880
▁hücre	-7881
▁iklim	-7882
▁nedir	-7883
▁oyuna	-7884
▁tüfek	-7885
▁Çukur	-7886
▁şansı	-7887
feransı	-7888
laşması	-7889
▁Başvur	-7890
▁Brexit	-7891
▁Kardeş	-7892
▁Neymar	-7893
▁ekibin	-7894
▁görüşt	-7895
▁hediye	-7896
▁izledi	-7897
▁kanaat	-7898
▁ortada	-7899
▁pahalı	-7900
▁rakibi	-7901
▁yasağı	-7902
▁Arnavut	-7903
▁Ekonomi	-7904
▁Kaddafi	-7905
▁arasına	-7906
▁bölgesi	-7907
▁ettiler	-7908
▁fırtına	-7909
▁izleyen	-7910
▁kamuoyu	-7911
▁katılma	-7912
▁otopark	-7913
▁çekiliş	-7914
▁Bakırköy	-7915
▁metrekar	-7916
▁organize	-7917
▁törenine	-7918
▁yangının	-7919
▁ziyareti	-7920
▁Çağlayan	-7921
▁Balıkesir	-7922
▁Danimarka	-7923
▁aktarıldı	-7924
▁biliniyor	-7925
▁duyduğunu	-7926
▁görüşmesi	-7927
▁havaliman	-7928
▁kararıyla	-7929
▁korunması	-7930
▁yapıyoruz	-7931
▁yıllardır	-7932
▁çıkardığı	-7933
▁Federasyon	-7934
▁Filistinli	-7935
▁diplomatik	-7936
▁beraberinde	-7937
▁hastanelere	-7938
▁programında	-7939
▁sonuçlarını	-7940
▁Parlamentosu	-7941
▁gösterdiğini	-7942
▁bulunmadığını	-7943
▁cumhurbaşkanı	-7944
▁beklediklerini	-7945
CK	-7946
Dün	-7947
ato	-7948
bağ	-7949
ont	-7950
ota	-7951
rat	-7952
taç	-7953
ünt	-7954
▁re	-7955
Eğer	-7956
adır	-7957
ladi	-7958
mini	-7959
mran	-7960
▁Akş	-7961
▁Col	-7962
▁Gal	-7963
▁NBA	-7964
▁Por	-7965
▁köt	-7966
▁leh	-7967
aspor	-7968
ersek	-7969
ilyon	-7970
ograf	-7971
▁Cenk	-7972
▁Geor	-7973
▁Tart	-7974
▁Unit	-7975
▁avro	-7976
▁bine	-7977
▁kesi	-7978
▁konv	-7979
▁tahs	-7980
▁ucuz	-7981
lılığı	-7982
ıcılık	-7983
▁Arınç	-7984
▁Daire	-7985
▁Inter	-7986
▁Saraç	-7987
▁alıcı	-7988
▁boğaz	-7989
▁işler	-7990
▁kartı	-7991
▁kaygı	-7992
▁robot	-7993
▁somut	-7994
▁tıbbi	-7995
biliriz	-7996
▁Akadem	-7997
▁Bağdat	-7998
▁Karaca	-7999
▁Karada	-8000
▁Kayser	-8001
▁Sarayı	-8002
▁Tahran	-8003
▁adıyla	-8004
▁aranan	-8005
▁araçta	-8006
▁hükmet	-8007
▁ismini	-8008
▁kurban	-8009
▁olmalı	-8010
▁oranla	-8011
▁söylen	-8012
▁sınırı	-8013
▁vizyon	-8014
eceğinin	-8015
leştirme	-8016
rimenkul	-8017
▁Akhisar	-8018
▁Polisin	-8019
▁Politik	-8020
▁bayrağı	-8021
▁değişen	-8022
▁geçecek	-8023
▁yurtdış	-8024
▁ürünler	-8025
▁İttifak	-8026
▁Vodafone	-8027
▁edebiyat	-8028
▁gelmişti	-8029
▁inanıyor	-8030
▁katılmak	-8031
▁kurucusu	-8032
▁kültürel	-8033
▁taraftan	-8034
▁tüketimi	-8035
▁önündeki	-8036
▁İnşallah	-8037
▁Liverpool	-8038
▁geçtiğini	-8039
▁ortasında	-8040
▁pazartesi	-8041
▁yakınında	-8042
▁yarısında	-8043
▁çerçevede	-8044
▁hassasiyet	-8045
▁incelemede	-8046
▁paylaştığı	-8047
▁kendisinden	-8048
▁milyonlarca	-8049
▁performansı	-8050
▁İddianamede	-8051
▁Başkanvekili	-8052
▁vatandaşları	-8053
80	-8054
ww	-8055
içi	-8056
laç	-8057
ruf	-8058
sep	-8059
teş	-8060
▁89	-8061
ekim	-8062
lusu	-8063
▁Con	-8064
▁Fah	-8065
▁Hac	-8066
▁TRT	-8067
▁Vek	-8068
▁alg	-8069
▁ins	-8070
▁nef	-8071
▁şük	-8072
alaxy	-8073
dıran	-8074
dırma	-8075
inize	-8076
laşan	-8077
mızda	-8078
çılar	-8079
▁2003	-8080
▁Berk	-8081
▁Fonu	-8082
▁Gölü	-8083
▁Gıda	-8084
▁atış	-8085
▁etap	-8086
▁hata	-8087
▁kayn	-8088
▁prof	-8089
▁veda	-8090
elaket	-8091
lemesi	-8092
▁2011'	-8093
▁Bağış	-8094
▁Cemal	-8095
▁Ersoy	-8096
▁Hatta	-8097
▁Münih	-8098
▁alkış	-8099
▁arazi	-8100
▁aydır	-8101
▁aşkın	-8102
▁daral	-8103
▁denet	-8104
▁devre	-8105
▁görme	-8106
▁kahve	-8107
▁rahim	-8108
▁sergi	-8109
▁vakit	-8110
▁çaplı	-8111
▁Şişli	-8112
▁şekil	-8113
lenerek	-8114
▁Baykal	-8115
▁Galaxy	-8116
▁Herkes	-8117
▁Kurban	-8118
▁Zeytin	-8119
▁ayakta	-8120
▁hedefi	-8121
▁kazanç	-8122
▁kentte	-8123
▁manevi	-8124
▁meclis	-8125
▁redded	-8126
▁renkli	-8127
▁tebrik	-8128
▁töreni	-8129
▁yazarı	-8130
ilebilir	-8131
lendirme	-8132
▁Tiyatro	-8133
▁ayından	-8134
▁başlama	-8135
▁diyabet	-8136
▁engelli	-8137
▁evlilik	-8138
▁girmesi	-8139
▁istenen	-8140
▁saatlik	-8141
▁sahneye	-8142
▁tanınan	-8143
▁vergisi	-8144
▁yolculu	-8145
▁çatışma	-8146
▁İddiaya	-8147
▁atmosfer	-8148
▁bazıları	-8149
▁bildiren	-8150
▁bulunmak	-8151
▁bölümünü	-8152
▁etmesini	-8153
▁görevine	-8154
▁hazırlan	-8155
▁ifadeler	-8156
▁maalesef	-8157
▁polisler	-8158
▁Öğretmen	-8159
▁çalışanı	-8160
bilirsiniz	-8161
▁açıklanan	-8162
▁bölgesine	-8163
▁edilirken	-8164
▁gürültülü	-8165
▁kendileri	-8166
▁seçimleri	-8167
▁söylediği	-8168
▁tecrübeli	-8169
▁toplumsal	-8170
▁tutuklama	-8171
▁memnuniyet	-8172
▁zamanlarda	-8173
▁çalışmanın	-8174
▁belirtmişti	-8175
▁açıklamasını	-8176
▁hazırlanıyor	-8177
,9	-8178
Ne	-8179
TK	-8180
yo	-8181
âr	-8182
▁*	-8183
omb	-8184
que	-8185
slu	-8186
tag	-8187
tel	-8188
▁99	-8189
▁Sw	-8190
akar	-8191
batı	-8192
eral	-8193
hael	-8194
iban	-8195
keli	-8196
layı	-8197
ocuğ	-8198
tina	-8199
ünüz	-8200
▁1.2	-8201
▁Kab	-8202
▁Kit	-8203
▁Rah	-8204
▁Tük	-8205
▁aşı	-8206
▁köp	-8207
▁muv	-8208
▁nam	-8209
▁rok	-8210
▁Çay	-8211
enler	-8212
linik	-8213
linin	-8214
osuna	-8215
seniz	-8216
▁2005	-8217
▁Sili	-8218
▁boyu	-8219
▁hemş	-8220
▁iPad	-8221
▁ilti	-8222
▁lüks	-8223
▁müeb	-8224
▁şeri	-8225
ediyor	-8226
illiam	-8227
omatik	-8228
üsünün	-8229
▁2009'	-8230
▁Altun	-8231
▁Andre	-8232
▁Atlet	-8233
▁Konuş	-8234
▁Tolga	-8235
▁baraj	-8236
▁borcu	-8237
▁hepsi	-8238
▁hitap	-8239
▁ihale	-8240
▁kurma	-8241
▁ligde	-8242
▁sabır	-8243
▁tutan	-8244
▁yüküm	-8245
▁yılki	-8246
▁Ülkem	-8247
▁çiçek	-8248
▁Tarihi	-8249
▁Zeynep	-8250
▁anayas	-8251
▁dinlen	-8252
▁sokağa	-8253
▁taşıdı	-8254
▁yarısı	-8255
▁yağışı	-8256
▁düştüğü	-8257
▁geçmesi	-8258
▁girerek	-8259
▁karayol	-8260
▁kullanı	-8261
▁riskini	-8262
▁savcılı	-8263
▁tehlike	-8264
▁önemine	-8265
▁alanları	-8266
▁etkisini	-8267
▁milletin	-8268
▁röportaj	-8269
▁saatleri	-8270
▁yaklaşım	-8271
▁akaryakıt	-8272
▁bulunuldu	-8273
▁fotoğrafı	-8274
▁getiriyor	-8275
▁görüşmede	-8276
▁ifadelere	-8277
▁iyileştir	-8278
▁sistemine	-8279
▁özgürlüğü	-8280
▁ürünlerin	-8281
▁Kaçakçılık	-8282
▁geleceğini	-8283
▁haberleşme	-8284
▁olumsuzluk	-8285
▁şüpheliler	-8286
▁Antalyaspor	-8287
▁kuruluşları	-8288
▁yapılmasını	-8289
▁faaliyetleri	-8290
▁başkanlığında	-8291
▁değerlendirme	-8292
Av	-8293
OM	-8294
au	-8295
ja	-8296
ike	-8297
oza	-8298
pat	-8299
tor	-8300
tın	-8301
ülk	-8302
şaf	-8303
▁07	-8304
▁84	-8305
▁Eg	-8306
▁Gr	-8307
arım	-8308
dine	-8309
edek	-8310
ktan	-8311
uluş	-8312
urcu	-8313
▁Ces	-8314
▁Seb	-8315
▁Tür	-8316
▁Zar	-8317
▁ırk	-8318
dırdı	-8319
ezerv	-8320
iyade	-8321
küdar	-8322
medim	-8323
mesin	-8324
okulu	-8325
çilik	-8326
ümüze	-8327
▁Bolu	-8328
▁grip	-8329
▁saha	-8330
▁sevg	-8331
▁tesi	-8332
▁uyum	-8333
▁yetk	-8334
▁Çank	-8335
▁Ünal	-8336
▁özen	-8337
abilen	-8338
teryal	-8339
▁Eylem	-8340
▁Macar	-8341
▁Tesis	-8342
▁alımı	-8343
▁barın	-8344
▁keyif	-8345
▁liman	-8346
▁nadir	-8347
▁sordu	-8348
▁sözlü	-8349
▁yakıt	-8350
▁çalın	-8351
larınca	-8352
çilerin	-8353
▁Batman	-8354
▁Birlik	-8355
▁Denizi	-8356
▁Elazığ	-8357
▁Eroğlu	-8358
▁Hiçbir	-8359
▁Selman	-8360
▁aksine	-8361
▁dernek	-8362
▁klasik	-8363
▁oyunun	-8364
▁uzanan	-8365
▁zeytin	-8366
▁zırhlı	-8367
▁çarpış	-8368
lerimize	-8369
▁Romanya	-8370
▁altının	-8371
▁bulunma	-8372
▁hakkını	-8373
▁hastası	-8374
▁hastaya	-8375
▁kapanış	-8376
▁müebbet	-8377
▁solunum	-8378
▁tecavüz	-8379
▁yetenek	-8380
▁yıldızı	-8381
ileceğini	-8382
▁Kongresi	-8383
▁egzersiz	-8384
▁kapsayan	-8385
▁versiyon	-8386
▁Makedonya	-8387
▁Olimpiyat	-8388
▁diliyorum	-8389
▁stratejik	-8390
▁çocuklara	-8391
▁Fetullahçı	-8392
▁Yetkililer	-8393
▁bilinmeyen	-8394
▁edilmesini	-8395
▁etmektedir	-8396
▁gönderdiği	-8397
▁seçimlerin	-8398
▁sözleşmesi	-8399
▁tamamlanan	-8400
▁uyarısında	-8401
▁kolaylaştır	-8402
▁Hastalıkları	-8403
MF	-8404
Tr	-8405
Öz	-8406
’,	-8407
Son	-8408
ack	-8409
düs	-8410
göz	-8411
ily	-8412
▁Ef	-8413
▁KD	-8414
▁ib	-8415
amam	-8416
amış	-8417
elle	-8418
tion	-8419
ıkçı	-8420
▁Büt	-8421
▁Pay	-8422
▁bon	-8423
▁por	-8424
▁tüp	-8425
elsea	-8426
ikapı	-8427
ispor	-8428
lenin	-8429
lobal	-8430
luluğ	-8431
satan	-8432
▁Anne	-8433
▁Bing	-8434
▁asts	-8435
▁best	-8436
▁bini	-8437
▁boru	-8438
▁gazı	-8439
▁horm	-8440
▁ikna	-8441
▁kred	-8442
▁suna	-8443
▁yara	-8444
▁yeme	-8445
▁Önce	-8446
▁İpek	-8447
vekkil	-8448
ülecek	-8449
▁Gönül	-8450
▁Sahil	-8451
▁Yemen	-8452
▁ajans	-8453
▁doğan	-8454
▁evlat	-8455
▁gidip	-8456
▁hücum	-8457
▁ihmal	-8458
▁işsiz	-8459
▁kısım	-8460
▁periy	-8461
▁seçen	-8462
▁sigar	-8463
▁unvan	-8464
▁yapıp	-8465
▁yumur	-8466
▁çekim	-8467
acaktır	-8468
acağına	-8469
ayacağı	-8470
sağlığı	-8471
ülasyon	-8472
▁Topbaş	-8473
▁Toplum	-8474
▁Yalova	-8475
▁arayış	-8476
▁ayının	-8477
▁gördüğ	-8478
▁görsel	-8479
▁gözyaş	-8480
▁heykel	-8481
▁izleyi	-8482
▁kitabı	-8483
▁kurucu	-8484
▁kıymet	-8485
▁mağlub	-8486
▁ruhsat	-8487
▁tavsiy	-8488
▁vicdan	-8489
▁Çelebi	-8490
▁ailenin	-8491
▁artması	-8492
▁artıyor	-8493
▁aşamada	-8494
▁cerrahi	-8495
▁detaylı	-8496
▁doğumlu	-8497
▁gebelik	-8498
▁işçinin	-8499
▁kavgaya	-8500
▁konunun	-8501
▁noktası	-8502
▁noktaya	-8503
▁tabanca	-8504
▁yapmayı	-8505
▁Yönetmen	-8506
▁maliyeti	-8507
▁materyal	-8508
▁otomatik	-8509
▁reddetti	-8510
▁tasarruf	-8511
▁yolculuk	-8512
eceklerini	-8513
▁başvuruda	-8514
▁oluşturan	-8515
▁sunulacak	-8516
▁yetkilisi	-8517
▁şikayetçi	-8518
▁şirketler	-8519
▁ifadesinde	-8520
▁olmasından	-8521
▁seviyesine	-8522
▁futbolcunun	-8523
▁oyuncuların	-8524
▁tedavisinin	-8525
▁yakınlarına	-8526
▁kullanılacak	-8527
▁seçimlerinde	-8528
▁gerekmektedir	-8529
EC	-8530
ps	-8531
sk	-8532
ws	-8533
Şu	-8534
ach	-8535
hak	-8536
ill	-8537
jen	-8538
kik	-8539
vel	-8540
yat	-8541
zat	-8542
ğüs	-8543
şar	-8544
▁9.	-8545
▁98	-8546
▁TM	-8547
Yeni	-8548
adis	-8549
apur	-8550
eron	-8551
ganı	-8552
lası	-8553
olan	-8554
▁Akç	-8555
▁Dam	-8556
▁MİT	-8557
▁Soğ	-8558
▁küf	-8559
▁rad	-8560
▁suy	-8561
ilmez	-8562
kanın	-8563
▁Dinç	-8564
▁Ende	-8565
▁Eren	-8566
▁Küba	-8567
▁Phil	-8568
▁bölü	-8569
▁cilt	-8570
▁eğit	-8571
▁izni	-8572
▁menf	-8573
▁niye	-8574
▁semt	-8575
▁sorg	-8576
edilen	-8577
kender	-8578
ünüyor	-8579
▁2012'	-8580
▁Aksoy	-8581
▁David	-8582
▁Dönem	-8583
▁Sınır	-8584
▁Tören	-8585
▁Vladi	-8586
▁dedim	-8587
▁doğur	-8588
▁ekmek	-8589
▁güzer	-8590
▁kilit	-8591
▁nakli	-8592
▁olaya	-8593
▁sekiz	-8594
▁teşeb	-8595
▁şeyin	-8596
ileceği	-8597
luğunda	-8598
▁kalmış	-8599
▁kendim	-8600
▁kripto	-8601
▁maçını	-8602
▁tarihe	-8603
▁tırman	-8604
▁çekici	-8605
▁çekmek	-8606
▁ücreti	-8607
▁üyelik	-8608
alarıyla	-8609
▁Başkent	-8610
▁Chelsea	-8611
▁Demirel	-8612
▁Konuyla	-8613
▁eğitime	-8614
▁gönüllü	-8615
▁herkese	-8616
▁karışık	-8617
▁muhafaz	-8618
▁pozitif	-8619
▁süreyle	-8620
▁zararlı	-8621
▁Üsküdar	-8622
▁öngören	-8623
kırmızılı	-8624
▁belirsiz	-8625
▁berabere	-8626
▁faydalan	-8627
▁işsizlik	-8628
▁seviyede	-8629
▁taşıdığı	-8630
▁çalışmak	-8631
▁çıkmıştı	-8632
▁İmamoğlu	-8633
▁dünyadaki	-8634
▁düzeyinde	-8635
▁gelecekte	-8636
▁inceleyen	-8637
▁işçilerin	-8638
▁olayların	-8639
▁sonlandır	-8640
▁telefonla	-8641
▁öğrenilen	-8642
▁aşamasında	-8643
▁başsağlığı	-8644
▁edilmesine	-8645
▁elektrikli	-8646
▁muhabirine	-8647
▁mücadelesi	-8648
▁sistemleri	-8649
▁yargılanan	-8650
▁Önümüzdeki	-8651
▁Bulgaristan	-8652
▁getirilmesi	-8653
▁görüldüğünü	-8654
▁temsilcileri	-8655
▁çocuklarının	-8656
EN	-8657
KB	-8658
OR	-8659
İH	-8660
Beş	-8661
PKK	-8662
alp	-8663
cay	-8664
che	-8665
cık	-8666
day	-8667
lov	-8668
say	-8669
tiş	-8670
önü	-8671
üte	-8672
▁86	-8673
▁93	-8674
▁MK	-8675
▁br	-8676
.00’	-8677
drom	-8678
iirt	-8679
imle	-8680
iste	-8681
iğin	-8682
lılı	-8683
ralı	-8684
uklu	-8685
▁Est	-8686
▁Ref	-8687
▁and	-8688
▁nik	-8689
▁set	-8690
▁tad	-8691
▁Çık	-8692
▁ödü	-8693
▁İYİ	-8694
Bugün	-8695
ayeti	-8696
azarı	-8697
mayın	-8698
▁Acar	-8699
▁Mert	-8700
▁pank	-8701
▁serv	-8702
▁Ülke	-8703
acağım	-8704
izyonu	-8705
kanlık	-8706
▁Ahmed	-8707
▁Doğru	-8708
▁Erbil	-8709
▁Meral	-8710
▁Siirt	-8711
▁Telef	-8712
▁bakış	-8713
▁basit	-8714
▁bitti	-8715
▁hattı	-8716
▁kulak	-8717
▁kısır	-8718
▁nesil	-8719
▁tavır	-8720
▁çıkıp	-8721
▁Şükrü	-8722
duğumuz	-8723
▁Bugüne	-8724
▁Ermeni	-8725
▁United	-8726
▁Vekili	-8727
▁Yangın	-8728
▁coğraf	-8729
▁denize	-8730
▁eylemi	-8731
▁gayret	-8732
▁işletm	-8733
▁kadını	-8734
▁oluşum	-8735
▁oynama	-8736
▁sandal	-8737
▁seçime	-8738
▁yapısı	-8739
▁yolunu	-8740
ebilmesi	-8741
lamaları	-8742
melerine	-8743
▁Akşener	-8744
▁Brüksel	-8745
▁Michael	-8746
▁William	-8747
▁bulduğu	-8748
▁bunlara	-8749
▁değildi	-8750
▁diyalog	-8751
▁duyulan	-8752
▁düşmesi	-8753
▁gelişen	-8754
▁geçiyor	-8755
▁haziran	-8756
▁katkıda	-8757
▁miktarı	-8758
▁oğlunun	-8759
▁sektörü	-8760
▁taburcu	-8761
▁Vladimir	-8762
▁astsubay	-8763
▁açılacak	-8764
▁bakanlık	-8765
▁bisiklet	-8766
▁dışından	-8767
▁etkileri	-8768
▁hükmetti	-8769
▁işlemler	-8770
▁sağlandı	-8771
▁çoğunluk	-8772
▁Bayraktar	-8773
▁Havacılık	-8774
▁anımsatan	-8775
▁birbirine	-8776
▁ediyorlar	-8777
▁görüldüğü	-8778
▁raporunda	-8779
▁töreninde	-8780
▁yaşanıyor	-8781
▁örgütleri	-8782
▁Konferansı	-8783
▁anlaşmanın	-8784
▁görüşmenin	-8785
▁kaydedilen	-8786
▁söylediler	-8787
▁şirketinin	-8788
▁görüntüleri	-8789
▁görüşmeleri	-8790
▁müdahalenin	-8791
▁neticesinde	-8792
▁planlanıyor	-8793
▁saldırıları	-8794
▁çocuklarını	-8795
▁çıkarılması	-8796
▁şirketlerin	-8797
▁Bakanlığının	-8798
▁geliştirilen	-8799
▁idaresindeki	-8800
▁Gençlerbirliği	-8801
0’	-8802
EL	-8803
TP	-8804
Par	-8805
idi	-8806
ife	-8807
ino	-8808
kuş	-8809
omo	-8810
raj	-8811
teg	-8812
uel	-8813
▁7'	-8814
▁79	-8815
▁97	-8816
▁HP	-8817
anta	-8818
eyim	-8819
ibot	-8820
türü	-8821
varı	-8822
ısal	-8823
▁2,5	-8824
▁Bla	-8825
▁Dik	-8826
▁KDV	-8827
▁Lim	-8828
▁Lüb	-8829
▁Mit	-8830
▁Tas	-8831
▁mus	-8832
▁vel	-8833
dınız	-8834
erkük	-8835
siyet	-8836
sızın	-8837
yüzde	-8838
▁2006	-8839
▁batı	-8840
▁endü	-8841
▁evli	-8842
▁kedi	-8843
▁meyv	-8844
▁çatı	-8845
cılara	-8846
▁Boğaz	-8847
▁Değer	-8848
▁Emine	-8849
▁Erkan	-8850
▁Mutlu	-8851
▁Planı	-8852
▁Sivil	-8853
▁bacak	-8854
▁biber	-8855
▁dönüm	-8856
▁eklen	-8857
▁husus	-8858
▁nakil	-8859
▁rehin	-8860
▁taksi	-8861
▁Ülker	-8862
çekmece	-8863
▁Sarraf	-8864
▁Toplam	-8865
▁açıkça	-8866
▁doları	-8867
▁kadına	-8868
▁söylem	-8869
▁Üçüncü	-8870
▁Aslında	-8871
▁Küresel	-8872
▁alanlar	-8873
▁araçlar	-8874
▁doktora	-8875
▁gençler	-8876
▁kurduğu	-8877
▁mensubu	-8878
▁onlarca	-8879
▁yolları	-8880
▁çektiği	-8881
düklerini	-8882
▁askerler	-8883
▁barındır	-8884
▁iddialar	-8885
▁isimleri	-8886
▁karıştır	-8887
▁pasaport	-8888
▁projeler	-8889
▁çarşamba	-8890
elerindeki	-8891
▁Sivasspor	-8892
▁Ulaştırma	-8893
▁başarıyla	-8894
▁duruşmada	-8895
▁gençlerin	-8896
▁görünüyor	-8897
▁kamuoyuna	-8898
▁tarafında	-8899
▁çoğunluğu	-8900
▁önemlidir	-8901
▁askerlerin	-8902
▁bağlantılı	-8903
▁ilgilendir	-8904
▁karşılaştı	-8905
▁olduğundan	-8906
▁partilerin	-8907
▁sorunların	-8908
▁akademisyen	-8909
▁gazetecinin	-8910
▁edeceklerini	-8911
▁kontrolünden	-8912
▁propagandası	-8913
▁vatandaşlara	-8914
▁verdiklerini	-8915
▁değişiklikler	-8916
▁soruşturmanın	-8917
▁yaşadıklarını	-8918
1)	-8919
3,	-8920
IN	-8921
lâ	-8922
Ül	-8923
del	-8924
kaz	-8925
kut	-8926
low	-8927
oks	-8928
üri	-8929
▁Lo	-8930
▁Ta	-8931
ahan	-8932
ende	-8933
esun	-8934
omuz	-8935
ower	-8936
urda	-8937
ğdır	-8938
▁14.	-8939
▁3,5	-8940
▁Cal	-8941
▁Eli	-8942
▁Hik	-8943
▁Keş	-8944
▁Pil	-8945
▁Tez	-8946
▁Zir	-8947
▁dük	-8948
▁pik	-8949
▁zem	-8950
▁çel	-8951
eferi	-8952
etkik	-8953
ezzin	-8954
hanet	-8955
uhani	-8956
▁KPSS	-8957
▁Uslu	-8958
▁Vadi	-8959
▁bors	-8960
▁feda	-8961
▁fesh	-8962
▁fuar	-8963
▁kere	-8964
▁seri	-8965
▁sıvı	-8966
ülerek	-8967
▁Başar	-8968
▁Gerek	-8969
▁Milan	-8970
▁Ronal	-8971
▁Siyah	-8972
▁Zaten	-8973
▁antik	-8974
▁domat	-8975
▁etken	-8976
▁güreş	-8977
▁ikisi	-8978
▁karın	-8979
▁kusur	-8980
▁mimar	-8981
▁santr	-8982
▁satan	-8983
▁vefat	-8984
ipertan	-8985
iyetini	-8986
kilerin	-8987
▁Birçok	-8988
▁Fernan	-8989
▁Kerkük	-8990
▁Rüzgar	-8991
▁Turgut	-8992
▁akşamı	-8993
▁atıldı	-8994
▁dayalı	-8995
▁döneme	-8996
▁ederim	-8997
▁filmde	-8998
▁forvet	-8999
▁hektar	-9000
▁sayede	-9001
▁sinyal	-9002
▁tanesi	-9003
▁yarıda	-9004
▁ülkesi	-9005
ileriyle	-9006
mayacağı	-9007
▁Angeles	-9008
▁doların	-9009
▁felaket	-9010
▁gerekçe	-9011
▁gruplar	-9012
▁günleri	-9013
▁işveren	-9014
▁maçının	-9015
▁rastlan	-9016
▁varlığı	-9017
larımızla	-9018
▁Kurtuluş	-9019
▁Muhammet	-9020
▁Platform	-9021
▁haftanın	-9022
▁kısmında	-9023
▁kısmının	-9024
▁müttefik	-9025
▁teşebbüs	-9026
▁tüketici	-9027
▁çıkarmak	-9028
▁İnternet	-9029
▁İskender	-9030
▁İttifakı	-9031
▁şüphelen	-9032
ılabilecek	-9033
▁başarısız	-9034
▁eleştiren	-9035
▁etkileyen	-9036
▁kararları	-9037
▁yitirdiği	-9038
▁İngilizce	-9039
▁dergisinde	-9040
▁kullanıyor	-9041
▁mahkemenin	-9042
▁bulunmadığı	-9043
▁kaynaklanan	-9044
▁uygulanacak	-9045
▁adlandırılan	-9046
▁belirtilerek	-9047
▁kullandığını	-9048
▁yöneticileri	-9049
▁yaralandığını	-9050
7)	-9051
?”	-9052
pi	-9053
İl	-9054
-25	-9055
aca	-9056
era	-9057
ess	-9058
ung	-9059
zda	-9060
▁71	-9061
▁Pr	-9062
▁SP	-9063
▁öm	-9064
-200	-9065
ekon	-9066
over	-9067
vili	-9068
▁1-1	-9069
▁110	-9070
▁15'	-9071
▁2-3	-9072
▁BBC	-9073
▁Diz	-9074
▁küt	-9075
▁tuv	-9076
▁Şem	-9077
diniz	-9078
diven	-9079
doğdu	-9080
eland	-9081
incan	-9082
parta	-9083
teşem	-9084
üsünü	-9085
▁Anal	-9086
▁gemi	-9087
▁kayd	-9088
▁kurs	-9089
▁seyr	-9090
▁trav	-9091
▁Özer	-9092
▁Şent	-9093
alığın	-9094
aracak	-9095
mekten	-9096
▁2013'	-9097
▁Green	-9098
▁Konut	-9099
▁Mesut	-9100
▁açığı	-9101
▁cevab	-9102
▁denem	-9103
▁eseri	-9104
▁evden	-9105
▁kelim	-9106
▁kimin	-9107
▁sunan	-9108
▁yatan	-9109
▁yeten	-9110
▁zafer	-9111
▁İlhan	-9112
▁İstih	-9113
akistan	-9114
liyorum	-9115
▁Sendik	-9116
▁Toprak	-9117
▁derhal	-9118
▁gördüm	-9119
▁oradan	-9120
▁parayı	-9121
▁santim	-9122
▁çektir	-9123
▁çıkmaz	-9124
ilerinde	-9125
▁Karadağ	-9126
▁buluştu	-9127
▁dalında	-9128
▁değilim	-9129
▁etkiley	-9130
▁gezegen	-9131
▁götürdü	-9132
▁halkına	-9133
▁hayatta	-9134
▁içinden	-9135
▁kararla	-9136
▁sisteme	-9137
▁yöntemi	-9138
▁İzlanda	-9139
tiklerini	-9140
▁Hakkında	-9141
▁artırmak	-9142
▁başvuran	-9143
▁geçmişte	-9144
▁uzmanlar	-9145
▁üretilen	-9146
▁Havaalanı	-9147
▁Sırbistan	-9148
▁babasının	-9149
▁basınında	-9150
▁başlaması	-9151
▁dediğimiz	-9152
▁ifadesine	-9153
laştırılmış	-9154
▁baktığımız	-9155
▁bulunmuyor	-9156
▁engellemek	-9157
▁hedefliyor	-9158
▁müdahalede	-9159
▁olabiliyor	-9160
▁vatandaşın	-9161
▁çeyreğinde	-9162
ipertansiyon	-9163
▁kullanmıştı	-9164
▁kilometrelik	-9165
▁sonuçlarının	-9166
▁yapılacağını	-9167
▁sürdürülebilir	-9168
9)	-9169
AL	-9170
AM	-9171
El	-9172
pa	-9173
th	-9174
yl	-9175
çü	-9176
?''	-9177
air	-9178
ech	-9179
esk	-9180
lüt	-9181
mon	-9182
tis	-9183
üme	-9184
şak	-9185
ahit	-9186
asus	-9187
erin	-9188
ford	-9189
ings	-9190
maat	-9191
uble	-9192
▁Bob	-9193
▁Bro	-9194
▁Haş	-9195
▁Sim	-9196
▁Ste	-9197
▁caz	-9198
▁fos	-9199
▁koc	-9200
▁nih	-9201
Rusya	-9202
mamak	-9203
osman	-9204
uardi	-9205
▁Beni	-9206
▁Rize	-9207
▁Sami	-9208
▁Stan	-9209
▁Step	-9210
▁amir	-9211
▁doku	-9212
▁ekim	-9213
▁hükm	-9214
▁okur	-9215
▁salı	-9216
▁sesi	-9217
▁sizi	-9218
▁vurg	-9219
abildi	-9220
alarca	-9221
tikten	-9222
▁Dolar	-9223
▁Gökçe	-9224
▁Halep	-9225
▁Kenan	-9226
▁Mursi	-9227
▁buçuk	-9228
▁değin	-9229
▁eline	-9230
▁gereğ	-9231
▁intik	-9232
▁resim	-9233
▁sundu	-9234
▁yaşay	-9235
▁Çevik	-9236
▁Ümran	-9237
▁ölümü	-9238
▁ötürü	-9239
dığımız	-9240
enlerin	-9241
▁Haydar	-9242
▁Hırvat	-9243
▁Kaplan	-9244
▁Konser	-9245
▁Martin	-9246
▁Vadisi	-9247
▁Ziraat	-9248
▁adamın	-9249
▁basket	-9250
▁gazete	-9251
▁geçmek	-9252
▁koltuk	-9253
▁korsan	-9254
▁krizin	-9255
▁kurmak	-9256
▁olamaz	-9257
▁parlak	-9258
▁sertif	-9259
▁soruyu	-9260
▁sunucu	-9261
▁tarama	-9262
▁teşhis	-9263
▁verdim	-9264
▁Diyanet	-9265
▁Medipol	-9266
▁Müezzin	-9267
▁Premier	-9268
▁Yolları	-9269
▁duyduğu	-9270
▁faydalı	-9271
▁fırsatı	-9272
▁geleceğ	-9273
▁kapattı	-9274
▁konulan	-9275
▁partisi	-9276
▁sendrom	-9277
▁yenerek	-9278
▁adamları	-9279
▁aracının	-9280
▁arayarak	-9281
▁demektir	-9282
▁duygusal	-9283
▁giderken	-9284
▁insanlık	-9285
▁inşallah	-9286
▁çarpıştı	-9287
▁Şirketin	-9288
▁Konyaspor	-9289
▁Teknoloji	-9290
▁Tesisleri	-9291
▁ağırlıklı	-9292
▁basketbol	-9293
▁buluşacak	-9294
▁cumartesi	-9295
▁denizaltı	-9296
▁halindeki	-9297
▁istemeyen	-9298
▁olduğunda	-9299
▁seçimlere	-9300
▁süresince	-9301
▁talebinde	-9302
▁cezaevinde	-9303
▁enfeksiyon	-9304
▁sözleriyle	-9305
▁vereceğini	-9306
▁çalışırken	-9307
▁şirketleri	-9308
▁Büyükelçisi	-9309
▁programları	-9310
▁verilmesini	-9311
▁yayınladığı	-9312
▁kendilerinin	-9313
▁kullanıldığı	-9314
▁teröristlerin	-9315
6)	-9316
Ak	-9317
ym	-9318
▁.	-9319
.45	-9320
ass	-9321
bal	-9322
bre	-9323
gur	-9324
ott	-9325
vey	-9326
vri	-9327
yoz	-9328
zet	-9329
▁83	-9330
▁Gi	-9331
▁Ra	-9332
▁op	-9333
▁öp	-9334
amin	-9335
coin	-9336
ehri	-9337
emli	-9338
gela	-9339
işti	-9340
otik	-9341
oyol	-9342
wood	-9343
▁Don	-9344
▁Göç	-9345
▁Ros	-9346
▁TEM	-9347
▁TSİ	-9348
▁ayn	-9349
▁ağz	-9350
▁cis	-9351
▁kep	-9352
▁nez	-9353
▁poş	-9354
▁çet	-9355
▁Şer	-9356
▁şut	-9357
Fener	-9358
apoli	-9359
borat	-9360
▁Kırk	-9361
▁Oper	-9362
▁Otob	-9363
▁Sulh	-9364
▁atöl	-9365
▁pomp	-9366
▁skan	-9367
▁ster	-9368
▁trib	-9369
▁turu	-9370
▁ümit	-9371
ilmeye	-9372
okrasi	-9373
umuzun	-9374
ıyordu	-9375
▁Adası	-9376
▁Anton	-9377
▁Aykut	-9378
▁Bebek	-9379
▁Ekrem	-9380
▁Mobil	-9381
▁Motor	-9382
▁Müzik	-9383
▁Yakup	-9384
▁Zafer	-9385
▁aleyh	-9386
▁aralı	-9387
▁ayrım	-9388
▁belge	-9389
▁elini	-9390
▁istey	-9391
▁isyan	-9392
▁işyer	-9393
▁mermi	-9394
▁okuma	-9395
▁oyunc	-9396
▁roket	-9397
▁sanay	-9398
▁sunum	-9399
▁tatlı	-9400
▁zorla	-9401
▁Önder	-9402
▁çizgi	-9403
▁İşler	-9404
tikleri	-9405
▁Christ	-9406
▁Kurtar	-9407
▁Norveç	-9408
▁Robert	-9409
▁Siyasi	-9410
▁arayan	-9411
▁binası	-9412
▁binden	-9413
▁erecek	-9414
▁kısmen	-9415
▁olmasa	-9416
▁sessiz	-9417
▁zincir	-9418
leveland	-9419
luluğunu	-9420
ulmasına	-9421
▁Başvuru	-9422
▁Korkmaz	-9423
▁Taliban	-9424
▁Yabancı	-9425
▁bebeğin	-9426
▁cesaret	-9427
▁havanın	-9428
▁iddiası	-9429
▁izlemek	-9430
▁konuldu	-9431
▁laborat	-9432
▁oyların	-9433
▁oynamak	-9434
▁trilyon	-9435
▁uzaklaş	-9436
▁yakında	-9437
▁önlemek	-9438
▁başlamış	-9439
▁bozukluk	-9440
▁buradaki	-9441
▁dayandır	-9442
▁filminin	-9443
▁gelişmiş	-9444
▁geçirmek	-9445
▁grubunun	-9446
▁güzergah	-9447
▁uçakları	-9448
▁alınmıştı	-9449
▁belgeleri	-9450
▁edecektir	-9451
▁edileceği	-9452
▁savunuyor	-9453
▁öncelikle	-9454
▁Macaristan	-9455
▁görüntüler	-9456
▁haftalarda	-9457
▁hatırlattı	-9458
▁internette	-9459
▁isteyenler	-9460
▁işlemlerin	-9461
▁yöneticisi	-9462
▁çatışmalar	-9463
▁Müezzinoğlu	-9464
▁aralıklarla	-9465
▁güvenliğini	-9466
▁kaybetmişti	-9467
▁rahatsızlık	-9468
▁tedavisinde	-9469
▁bakıldığında	-9470
▁belirlenmesi	-9471
▁müdahalelere	-9472
▁saldırıların	-9473
▁saldırısında	-9474
▁incelemelerde	-9475
▁kullanıcıları	-9476
▁faaliyetlerini	-9477
):	-9478
8,	-9479
ff	-9480
amu	-9481
gue	-9482
ica	-9483
obi	-9484
▁AP	-9485
▁AY	-9486
▁Mi	-9487
▁dü	-9488
-400	-9489
lıca	-9490
name	-9491
özüm	-9492
ünür	-9493
▁11'	-9494
▁194	-9495
▁Gez	-9496
▁Los	-9497
▁Ner	-9498
▁Nus	-9499
▁cüm	-9500
▁evi	-9501
▁lek	-9502
▁mec	-9503
▁mir	-9504
Benim	-9505
azzaf	-9506
cımız	-9507
eledi	-9508
ledik	-9509
maraş	-9510
uvarı	-9511
▁Bana	-9512
▁Hadi	-9513
▁devi	-9514
▁merm	-9515
▁müte	-9516
▁olab	-9517
▁tatb	-9518
▁şamp	-9519
Cumhur	-9520
ediler	-9521
eğiyle	-9522
rettin	-9523
▁Alper	-9524
▁Fatma	-9525
▁Geçiş	-9526
▁Kerry	-9527
▁Kudüs	-9528
▁Savcı	-9529
▁Yakın	-9530
▁etmem	-9531
▁iftir	-9532
▁işten	-9533
▁kavga	-9534
▁mikro	-9535
▁nisan	-9536
▁parça	-9537
▁üzünt	-9538
▁Şeker	-9539
anlığın	-9540
melerin	-9541
melidir	-9542
tılacak	-9543
ışmanın	-9544
▁Bingöl	-9545
▁George	-9546
▁Kapalı	-9547
▁Lisesi	-9548
▁Profes	-9549
▁Sınavı	-9550
▁Teşkil	-9551
▁altyap	-9552
▁edilir	-9553
▁gemisi	-9554
▁gencin	-9555
▁geriye	-9556
▁günler	-9557
▁hissed	-9558
▁ikamet	-9559
▁lastik	-9560
▁maçına	-9561
▁Çiftçi	-9562
▁öncülü	-9563
▁ürünün	-9564
▁şoförü	-9565
▁Birinci	-9566
▁Kaşıkçı	-9567
▁Ronaldo	-9568
▁Yaşanan	-9569
▁bombası	-9570
▁denilen	-9571
▁kimseye	-9572
▁komutan	-9573
▁malzeme	-9574
▁nöbetçi	-9575
▁oyuncak	-9576
▁sorular	-9577
▁teminat	-9578
▁zamanla	-9579
liğindeki	-9580
▁Erzincan	-9581
▁Teknoloj	-9582
▁dereceye	-9583
▁içerikli	-9584
▁partiler	-9585
▁paylaşan	-9586
▁çıkarken	-9587
▁İsrailli	-9588
▁Kasımpaşa	-9589
▁arttığını	-9590
▁deplasman	-9591
▁haberlere	-9592
▁ilerleyen	-9593
▁insanlara	-9594
▁kazandığı	-9595
▁kullanıma	-9596
▁kuzeyinde	-9597
▁mutabakat	-9598
▁Çavuşoğlu	-9599
▁ülkemizin	-9600
▁ülkesinin	-9601
▁söndürüldü	-9602
▁üstlendiği	-9603
▁futbolcular	-9604
▁verilmiştir	-9605
▁yapabilecek	-9606
▁öldürüldüğü	-9607
▁belirlenecek	-9608
▁gelişmelerin	-9609
▁koordinasyon	-9610
▁yetkililerin	-9611
▁Büyükelçiliği	-9612
CO	-9613
OB	-9614
RK	-9615
Gel	-9616
Pro	-9617
biç	-9618
cia	-9619
kot	-9620
sus	-9621
▁II	-9622
▁Qu	-9623
▁Sı	-9624
-100	-9625
asıt	-9626
ecer	-9627
eyiz	-9628
ifor	-9629
isti	-9630
işik	-9631
nesi	-9632
zani	-9633
ünel	-9634
▁3-1	-9635
▁90'	-9636
▁DHA	-9637
▁DNA	-9638
▁Duy	-9639
▁Eur	-9640
▁Kem	-9641
▁Oda	-9642
▁ren	-9643
▁sta	-9644
▁tit	-9645
ecisi	-9646
emmel	-9647
etler	-9648
imden	-9649
irkin	-9650
obili	-9651
yaman	-9652
▁Beko	-9653
▁Dört	-9654
▁Hong	-9655
▁Muam	-9656
▁Paşa	-9657
▁Sark	-9658
▁Trak	-9659
▁doğa	-9660
▁işte	-9661
▁moda	-9662
▁tabl	-9663
▁yüzü	-9664
Ankara	-9665
lamalı	-9666
lumbağ	-9667
▁Bütçe	-9668
▁Daily	-9669
▁Divan	-9670
▁Hrist	-9671
▁Iğdır	-9672
▁Kredi	-9673
▁Muhal	-9674
▁Orada	-9675
▁Tekir	-9676
▁Trans	-9677
▁Yasin	-9678
▁Yaşam	-9679
▁ayrıl	-9680
▁bulut	-9681
▁devir	-9682
▁dönük	-9683
▁dünkü	-9684
▁evrak	-9685
▁istek	-9686
▁kolon	-9687
▁mesle	-9688
▁tavuk	-9689
▁yavru	-9690
▁yazan	-9691
▁yedek	-9692
▁çadır	-9693
▁önerg	-9694
▁İşlem	-9695
ational	-9696
▁Bayern	-9697
▁Camisi	-9698
▁Deprem	-9699
▁Gümrük	-9700
▁Gürsel	-9701
▁adrese	-9702
▁albümü	-9703
▁duyuru	-9704
▁fakült	-9705
▁fındık	-9706
▁geleni	-9707
▁hesabı	-9708
▁lehine	-9709
▁salonu	-9710
▁tüfeği	-9711
▁vermey	-9712
▁yazıda	-9713
▁çıkmak	-9714
▁İmralı	-9715
liğinden	-9716
▁Arkadaş	-9717
▁Beyoğlu	-9718
▁Bitcoin	-9719
▁Savcısı	-9720
▁Silivri	-9721
▁dağıtım	-9722
▁elbette	-9723
▁eğlence	-9724
▁feribot	-9725
▁gerekse	-9726
▁kökenli	-9727
▁yerleri	-9728
▁yiyecek	-9729
▁ölümüne	-9730
▁Milliyet	-9731
▁Programı	-9732
▁antrenör	-9733
▁bölgeden	-9734
▁büyükelç	-9735
▁durumuna	-9736
▁elindeki	-9737
▁etmeleri	-9738
▁havaalan	-9739
▁hükümete	-9740
▁ikramiye	-9741
▁müvekkil	-9742
▁sıklıkla	-9743
▁yanından	-9744
▁çeyrekte	-9745
Fenerbahçe	-9746
▁Cleveland	-9747
▁ameliyatı	-9748
▁birimleri	-9749
▁duyuruldu	-9750
▁ettiğimiz	-9751
▁gündemine	-9752
▁güvenilir	-9753
▁karaciğer	-9754
▁karşılığı	-9755
▁kazanacak	-9756
▁sırasıyla	-9757
▁yapılmadı	-9758
▁yayımladı	-9759
▁ziyaretçi	-9760
▁açıkladığı	-9761
▁kadrosunda	-9762
▁olabilecek	-9763
▁sözleşmeli	-9764
▁ülkelerine	-9765
▁İstatistik	-9766
▁alınmasının	-9767
▁destekleyen	-9768
▁doktorların	-9769
▁gelişmeleri	-9770
▁girişiminin	-9771
▁karşılaştır	-9772
▁kuzeyindeki	-9773
▁tartışmalar	-9774
▁teröristler	-9775
▁açıklamasına	-9776
▁bölgesindeki	-9777
▁hatırlatarak	-9778
▁çalışanların	-9779
)-	-9780
BI	-9781
EB	-9782
ny	-9783
faf	-9784
ida	-9785
tam	-9786
İHM	-9787
▁Ex	-9788
▁Fl	-9789
▁Ro	-9790
▁fi	-9791
▁je	-9792
▁na	-9793
ecik	-9794
eydi	-9795
icle	-9796
ilip	-9797
irin	-9798
oyun	-9799
sten	-9800
▁160	-9801
▁30'	-9802
▁Ata	-9803
▁Boş	-9804
▁Fal	-9805
▁Gom	-9806
▁Kuv	-9807
▁Reh	-9808
▁Yay	-9809
▁gas	-9810
▁koz	-9811
▁lez	-9812
▁sıç	-9813
▁çor	-9814
Ancak	-9815
dikal	-9816
erler	-9817
iziki	-9818
masız	-9819
melik	-9820
oktey	-9821
takal	-9822
yınca	-9823
▁2001	-9824
▁Gran	-9825
▁Kans	-9826
▁Oyun	-9827
▁adil	-9828
▁aklı	-9829
▁fonk	-9830
▁omuz	-9831
▁prov	-9832
▁yaya	-9833
▁Şark	-9834
ecilik	-9835
kinlik	-9836
yıldız	-9837
▁Abdur	-9838
▁Akşam	-9839
▁Bosna	-9840
▁Doğum	-9841
▁Evren	-9842
▁Hazır	-9843
▁Karam	-9844
▁Kerim	-9845
▁Kırık	-9846
▁Nasıl	-9847
▁alama	-9848
▁aldım	-9849
▁bahar	-9850
▁edici	-9851
▁fatur	-9852
▁imzal	-9853
▁inanç	-9854
▁işken	-9855
▁kasım	-9856
▁limit	-9857
▁litre	-9858
▁sıral	-9859
▁yanlı	-9860
▁çekir	-9861
oterapi	-9862
▁Maduro	-9863
▁Ruhani	-9864
▁Teklif	-9865
▁atanan	-9866
▁balkon	-9867
▁birimi	-9868
▁boşalt	-9869
▁bölücü	-9870
▁gözler	-9871
▁hırsız	-9872
▁ilçede	-9873
▁keşfet	-9874
▁ordusu	-9875
▁rezerv	-9876
▁seslen	-9877
▁seyret	-9878
▁tahsil	-9879
▁tahsis	-9880
▁yoldan	-9881
▁yoluna	-9882
▁yönelt	-9883
▁önlemi	-9884
▁şeffaf	-9885
elerdeki	-9886
evizyonu	-9887
▁Barzani	-9888
▁Bulvarı	-9889
▁Muammer	-9890
▁alakalı	-9891
▁aramada	-9892
▁buluyor	-9893
▁bununla	-9894
▁devleti	-9895
▁seçildi	-9896
▁taraflı	-9897
▁teşhisi	-9898
▁tuvalet	-9899
▁yenilik	-9900
lanmasına	-9901
melerinin	-9902
▁Ekonomik	-9903
▁Esenyurt	-9904
▁Uygulama	-9905
▁aydınlat	-9906
▁devrildi	-9907
▁dolardan	-9908
▁evlerine	-9909
▁görüşünü	-9910
▁güzellik	-9911
▁müdürlük	-9912
▁oluşacak	-9913
▁taraflar	-9914
▁toplandı	-9915
▁yapılmak	-9916
▁ülkelere	-9917
▁Savcılığı	-9918
▁Yaralılar	-9919
▁ayrıntılı	-9920
▁bölümünün	-9921
▁farklılık	-9922
▁gittiğini	-9923
▁görülecek	-9924
▁sağladığı	-9925
▁sağlığına	-9926
▁sorulması	-9927
▁sınırları	-9928
▁takımının	-9929
▁yapılarak	-9930
emeyeceğini	-9931
▁edebilecek	-9932
▁merkezinin	-9933
▁oyuncuları	-9934
▁potansiyel	-9935
▁sağlanacak	-9936
▁taşıdığını	-9937
▁alanlarında	-9938
▁yapılmasına	-9939
▁büyüklüğünde	-9940
▁durdurulması	-9941
▁fotoğrafları	-9942
▁kullanıcılar	-9943
▁kullanımının	-9944
▁suçlamasıyla	-9945
▁açıklamasının	-9946
▁dolandırıcılık	-9947
▁çalıştıklarını	-9948
18	-9949
3)	-9950
As	-9951
EM	-9952
Ön	-9953
Kay	-9954
deb	-9955
los	-9956
osa	-9957
tip	-9958
urk	-9959
yim	-9960
üyü	-9961
▁8,	-9962
▁Ir	-9963
▁Me	-9964
▁Öl	-9965
▁öf	-9966
▁öv	-9967
desi	-9968
dini	-9969
isar	-9970
iser	-9971
ulur	-9972
utma	-9973
veni	-9974
▁Alp	-9975
▁Bes	-9976
▁Cep	-9977
▁Coş	-9978
▁Def	-9979
▁Hus	-9980
▁IMF	-9981
▁McC	-9982
▁aya	-9983
▁fiş	-9984
▁inc	-9985
▁lan	-9986
▁ran	-9987
▁örg	-9988
.2018	-9989
eysel	-9990
eğine	-9991
mamız	-9992
sange	-9993
saray	-9994
▁100'	-9995
▁Afet	-9996
▁Gece	-9997
▁Nico	-9998
▁Ozan	-9999
▁Seri	-10000
▁Serk	-10001
▁Tali	-10002
▁iniş	-10003
▁kitl	-10004
▁kont	-10005
▁kına	-10006
▁mart	-10007
▁mavi	-10008
▁salg	-10009
▁saya	-10010
▁sokt	-10011
▁suik	-10012
▁Şeyh	-10013
cileri	-10014
duktan	-10015
incisi	-10016
▁Andro	-10017
▁Asker	-10018
▁Cihan	-10019
▁Doğal	-10020
▁Endon	-10021
▁Yapım	-10022
▁gidiş	-10023
▁göğüs	-10024
▁ikiye	-10025
▁seven	-10026
▁uğrat	-10027
▁yağlı	-10028
▁İhsan	-10029
▁şahit	-10030
▁şeref	-10031
ersonel	-10032
keoloji	-10033
▁Anayas	-10034
▁Boğazı	-10035
▁Türkan	-10036
▁benzin	-10037
▁birleş	-10038
▁dengel	-10039
▁geliri	-10040
▁havada	-10041
▁imalat	-10042
▁mahsur	-10043
▁masaya	-10044
▁pişman	-10045
▁saptan	-10046
▁tahliy	-10047
▁takdim	-10048
▁tamamı	-10049
▁tarafı	-10050
▁Aksaray	-10051
▁Federal	-10052
▁Gelecek	-10053
▁Giresun	-10054
▁Oğuzhan	-10055
▁Sarkozy	-10056
▁arındır	-10057
▁belgesi	-10058
▁havadan	-10059
▁işadamı	-10060
▁popüler	-10061
▁sınavda	-10062
▁tarihte	-10063
▁verimli	-10064
▁ödülünü	-10065
ledikleri	-10066
▁Bölgesel	-10067
▁Direktör	-10068
▁Elektrik	-10069
▁Tekirdağ	-10070
▁bilirkiş	-10071
▁hayatına	-10072
▁karayolu	-10073
▁koruyucu	-10074
▁tarihine	-10075
▁tedaviye	-10076
▁verilere	-10077
▁vitamini	-10078
▁ülkemize	-10079
▁şartları	-10080
lacivertli	-10081
▁biyolojik	-10082
▁direktörü	-10083
▁gereğince	-10084
▁götürülen	-10085
▁haberleri	-10086
▁heyecanlı	-10087
▁kayıtları	-10088
▁kurumları	-10089
▁satışları	-10090
▁yanındaki	-10091
▁yollarını	-10092
▁öngörüyor	-10093
▁Hizmetleri	-10094
▁Hollandalı	-10095
▁Toplantısı	-10096
▁alışkanlık	-10097
▁hastalarda	-10098
▁kaynakları	-10099
▁mağlubiyet	-10100
▁ülkelerden	-10101
▁Emniyetteki	-10102
▁araştırmaya	-10103
▁iddialarına	-10104
▁istedikleri	-10105
▁operasyonun	-10106
▁seviyesinin	-10107
▁yayımladığı	-10108
▁yönetiminde	-10109
▁ülkelerinde	-10110
▁Cumhuriyetçi	-10111
▁Müdürlüğünün	-10112
▁hastalığının	-10113
▁Kahramanmaraş	-10114
▁taraftarların	-10115
▁yapılabilecek	-10116
▁gerçekleştiren	-10117
▁görevlilerinin	-10118
.6	-10119
/2	-10120
BP	-10121
IC	-10122
by	-10123
ji	-10124
2),	-10125
ben	-10126
nur	-10127
oca	-10128
ürt	-10129
▁96	-10130
▁eb	-10131
▁xx	-10132
----	-10133
alaş	-10134
ates	-10135
diya	-10136
eşme	-10137
irli	-10138
kten	-10139
usuz	-10140
yeni	-10141
▁Del	-10142
▁Düş	-10143
▁Geb	-10144
▁Hız	-10145
▁Kel	-10146
▁Ric	-10147
▁Ses	-10148
▁Çal	-10149
▁Şaş	-10150
cağım	-10151
dilik	-10152
dinde	-10153
ganın	-10154
lerdi	-10155
mekle	-10156
Çocuk	-10157
üzdan	-10158
üşşaf	-10159
ınızı	-10160
▁Adem	-10161
▁Gült	-10162
▁Mold	-10163
▁Nuri	-10164
▁Para	-10165
▁Sing	-10166
▁Soma	-10167
▁Usta	-10168
▁Zira	-10169
▁akış	-10170
▁ağız	-10171
▁ekme	-10172
▁ince	-10173
▁kalb	-10174
▁ufak	-10175
▁usta	-10176
gunluk	-10177
ümüzün	-10178
ımızda	-10179
▁Abdül	-10180
▁Anket	-10181
▁Final	-10182
▁Fuarı	-10183
▁Kerem	-10184
▁Oscar	-10185
▁Pınar	-10186
▁Radyo	-10187
▁Temiz	-10188
▁Yargı	-10189
▁akrab	-10190
▁araca	-10191
▁beton	-10192
▁bölün	-10193
▁geçer	-10194
▁golcü	-10195
▁gözet	-10196
▁haklı	-10197
▁havuz	-10198
▁iktid	-10199
▁ispat	-10200
▁kabin	-10201
▁karma	-10202
▁kuşat	-10203
▁küfür	-10204
▁meden	-10205
▁selam	-10206
▁skoru	-10207
▁tetik	-10208
▁teyit	-10209
▁topla	-10210
▁yapay	-10211
▁yüzme	-10212
ağımsız	-10213
luğunun	-10214
▁Artvin	-10215
▁Bitlis	-10216
▁Guardi	-10217
▁Lübnan	-10218
▁alanın	-10219
▁bonser	-10220
▁geldim	-10221
▁gündüz	-10222
▁hukuka	-10223
▁kutsal	-10224
▁lirayı	-10225
▁masraf	-10226
▁müdürü	-10227
▁tetkik	-10228
▁tutmak	-10229
▁uğradı	-10230
▁yarıya	-10231
▁zamanı	-10232
▁çözümü	-10233
ulmasını	-10234
üşşafaka	-10235
▁Devleti	-10236
▁Değişik	-10237
▁Görüntü	-10238
▁Hareket	-10239
▁Kontrol	-10240
▁Sorumlu	-10241
▁aracına	-10242
▁ateşkes	-10243
▁bırakan	-10244
▁duyarlı	-10245
▁endüstr	-10246
▁görünüm	-10247
▁güvence	-10248
▁hükümlü	-10249
▁iddiaya	-10250
▁mürette	-10251
▁müşteri	-10252
▁sıradan	-10253
▁tutuyor	-10254
▁yapımcı	-10255
▁yaratan	-10256
▁yardımı	-10257
▁yürüyen	-10258
öylelikle	-10259
▁Adıyaman	-10260
▁Fotoğraf	-10261
▁Gültekin	-10262
▁Harekatı	-10263
▁altından	-10264
▁etmiştir	-10265
▁kesinleş	-10266
▁piyasada	-10267
▁verileri	-10268
▁verilmiş	-10269
▁Ödülleri	-10270
▁anlamında	-10271
▁biliyorum	-10272
▁bunlardan	-10273
▁haberinde	-10274
▁isteniyor	-10275
▁kontrollü	-10276
▁otomobili	-10277
▁seslendir	-10278
▁sokakları	-10279
▁talepleri	-10280
▁yakalamak	-10281
▁başkanları	-10282
▁bulunmayan	-10283
▁gazetesine	-10284
▁geliştirme	-10285
▁göstergesi	-10286
▁hareketsiz	-10287
▁kampanyası	-10288
▁müdahalesi	-10289
▁müdahaleye	-10290
▁propaganda	-10291
▁Öğrenciler	-10292
▁Darüşşafaka	-10293
▁Kayserispor	-10294
▁açıklarında	-10295
▁fotoğrafını	-10296
▁galibiyetle	-10297
▁suçlamaları	-10298
▁özellikleri	-10299
▁ülkelerinin	-10300
▁Koordinasyon	-10301
▁görüşmelerde	-10302
▁olmayacağını	-10303
▁operasyonlar	-10304
▁rahatsızlığı	-10305
▁şirketlerinin	-10306
▁çalışmalarında	-10307
▁Başsavcılığınca	-10308
.8	-10309
EF	-10310
SB	-10311
DTÜ	-10312
Gün	-10313
Kur	-10314
cun	-10315
ear	-10316
ens	-10317
müz	-10318
öln	-10319
ıra	-10320
▁(7	-10321
▁Du	-10322
▁Ök	-10323
▁Üz	-10324
ator	-10325
baba	-10326
dows	-10327
edim	-10328
igür	-10329
ijer	-10330
ikos	-10331
irse	-10332
osun	-10333
ğeri	-10334
▁3-0	-10335
▁Hor	-10336
▁Küt	-10337
▁Luk	-10338
▁Mut	-10339
▁Nas	-10340
▁Pek	-10341
▁Roc	-10342
▁Ruh	-10343
▁Zey	-10344
▁giş	-10345
▁ima	-10346
▁ols	-10347
▁ust	-10348
▁web	-10349
▁Çub	-10350
itler	-10351
kadir	-10352
larsa	-10353
madım	-10354
mazon	-10355
tagon	-10356
tetik	-10357
▁1999	-10358
▁Dest	-10359
▁Flor	-10360
▁Kaan	-10361
▁Reut	-10362
▁akın	-10363
▁hain	-10364
▁kaşı	-10365
▁kimi	-10366
▁kral	-10367
▁pist	-10368
▁sarf	-10369
▁stok	-10370
▁uğur	-10371
▁yaşı	-10372
▁Üzer	-10373
atıyla	-10374
emizde	-10375
emişti	-10376
stancı	-10377
▁Celal	-10378
▁Dicle	-10379
▁Geliş	-10380
▁Peter	-10381
▁Sarık	-10382
▁Topçu	-10383
▁Yüzde	-10384
▁burun	-10385
▁daire	-10386
▁enteg	-10387
▁eylül	-10388
▁görür	-10389
▁hariç	-10390
▁kargo	-10391
▁mühim	-10392
▁oldum	-10393
▁taahh	-10394
▁trafi	-10395
▁vücud	-10396
▁yazık	-10397
▁yaşta	-10398
▁yürüm	-10399
▁Çocuğ	-10400
▁çizdi	-10401
cağının	-10402
klarını	-10403
lüğünün	-10404
ulmuştu	-10405
▁Angela	-10406
▁Asliye	-10407
▁Kullan	-10408
▁Trakya	-10409
▁beklem	-10410
▁içecek	-10411
▁kirala	-10412
▁konten	-10413
▁otoyol	-10414
▁satıcı	-10415
▁sınavı	-10416
▁yaptım	-10417
▁yumruk	-10418
▁çiftin	-10419
▁İranlı	-10420
Beşiktaş	-10421
laşmanın	-10422
▁Assange	-10423
▁Harekat	-10424
▁Isparta	-10425
▁Karatay	-10426
▁arkadan	-10427
▁azından	-10428
▁ağırlık	-10429
▁boşanma	-10430
▁bulacak	-10431
▁deneyim	-10432
▁düşüşle	-10433
▁finalde	-10434
▁gelişim	-10435
▁karışan	-10436
▁odasına	-10437
▁seyirci	-10438
▁sokakta	-10439
▁tarafta	-10440
▁ulaşıma	-10441
▁vitamin	-10442
▁yaşamak	-10443
▁çözünür	-10444
▁İtfaiye	-10445
▁şartlar	-10446
▁Atletico	-10447
▁Demircan	-10448
▁Geliştir	-10449
▁Kadınlar	-10450
▁Kalkınma	-10451
▁başbakan	-10452
▁başvurdu	-10453
▁disiplin	-10454
▁firmalar	-10455
▁iyileşme	-10456
▁kaliteli	-10457
▁restoran	-10458
▁seviyesi	-10459
▁seçmenin	-10460
▁talebini	-10461
▁tedbirli	-10462
▁ticareti	-10463
▁verirken	-10464
▁yetişkin	-10465
ediklerini	-10466
▁Akademisi	-10467
▁hızlandır	-10468
▁isimlerin	-10469
▁konumunda	-10470
▁metrekare	-10471
▁tehlikesi	-10472
▁yapabilir	-10473
▁yayınladı	-10474
▁yeterince	-10475
▁öğretmeni	-10476
ebilirsiniz	-10477
▁Portekizli	-10478
▁Toplantıda	-10479
▁alınmasını	-10480
▁bahçesinde	-10481
▁eyaletinin	-10482
▁ifadesinin	-10483
▁kendisiyle	-10484
▁tarafların	-10485
▁yetmezliği	-10486
▁yolcuların	-10487
▁edileceğini	-10488
▁incelemenin	-10489
▁karşılığını	-10490
▁mensuplarına	-10491
▁soruşturmada	-10492
▁Bakanlığından	-10493
▁yönetmenliğini	-10494
17	-10495
25	-10496
IP	-10497
La	-10498
OL	-10499
kö	-10500
ls	-10501
yr	-10502
-12	-10503
-18	-10504
Bil	-10505
Ger	-10506
Hal	-10507
Hay	-10508
San	-10509
cis	-10510
ima	-10511
kol	-10512
rah	-10513
ruz	-10514
▁6,	-10515
▁7,	-10516
▁9'	-10517
▁We	-10518
▁bg	-10519
▁Ço	-10520
abri	-10521
ando	-10522
avan	-10523
iral	-10524
tanı	-10525
tron	-10526
Özel	-10527
şağı	-10528
▁Dol	-10529
▁Fas	-10530
▁Fev	-10531
▁Gam	-10532
▁KHK	-10533
▁LYS	-10534
▁Luc	-10535
▁Min	-10536
▁Red	-10537
▁Tho	-10538
▁doy	-10539
▁inç	-10540
▁kör	-10541
▁lak	-10542
▁sök	-10543
▁Çer	-10544
▁çak	-10545
Alman	-10546
eleme	-10547
emizi	-10548
oston	-10549
reden	-10550
ünist	-10551
▁AFAD	-10552
▁Adil	-10553
▁Bart	-10554
▁Jean	-10555
▁Mavi	-10556
▁Serg	-10557
▁Yolu	-10558
▁bayr	-10559
▁embr	-10560
▁okun	-10561
▁play	-10562
▁sana	-10563
▁seni	-10564
▁sper	-10565
▁tahr	-10566
▁Öyle	-10567
▁İkti	-10568
▁İlaç	-10569
▁ısın	-10570
▁şiir	-10571
emizin	-10572
likten	-10573
lilere	-10574
müştür	-10575
▁21.00	-10576
▁Günde	-10577
▁Hamas	-10578
▁Lider	-10579
▁Soylu	-10580
▁Steph	-10581
▁Yazar	-10582
▁Yücel	-10583
▁demiş	-10584
▁domuz	-10585
▁duran	-10586
▁eklem	-10587
▁evren	-10588
▁gözük	-10589
▁günün	-10590
▁kağıt	-10591
▁kömür	-10592
▁maaşı	-10593
▁mesai	-10594
▁ondan	-10595
▁oynay	-10596
▁radar	-10597
▁stres	-10598
▁tabak	-10599
▁tavan	-10600
▁zihin	-10601
▁Çoban	-10602
▁çabuk	-10603
▁şubat	-10604
emediği	-10605
miyorum	-10606
▁Amazon	-10607
▁Devrim	-10608
▁Eczacı	-10609
▁Geçmiş	-10610
▁Napoli	-10611
▁Saadet	-10612
▁Serkan	-10613
▁Tedavi	-10614
▁azaldı	-10615
▁finale	-10616
▁fiziki	-10617
▁görmez	-10618
▁ihanet	-10619
▁katına	-10620
▁partil	-10621
▁patlat	-10622
▁sayıya	-10623
▁sindir	-10624
▁sonuca	-10625
▁sıraya	-10626
▁tablet	-10627
▁taksit	-10628
▁uyardı	-10629
▁vadede	-10630
▁yanıtı	-10631
▁İnşaat	-10632
▁şehrin	-10633
ilmeleri	-10634
▁Kırmızı	-10635
▁anlamlı	-10636
▁araçtan	-10637
▁aylarda	-10638
▁açılışı	-10639
▁donanım	-10640
▁düşürül	-10641
▁firması	-10642
▁forması	-10643
▁gerçeği	-10644
▁illerde	-10645
▁indirdi	-10646
▁madalya	-10647
▁menajer	-10648
▁milyona	-10649
▁musunuz	-10650
▁sürerek	-10651
▁tutulan	-10652
▁yetkisi	-10653
▁önemini	-10654
▁ücretin	-10655
lamayacak	-10656
lendiğini	-10657
▁akademik	-10658
▁bulunmuş	-10659
▁firmanın	-10660
▁görüşmek	-10661
▁görüştük	-10662
▁hareketi	-10663
▁insansız	-10664
▁kişileri	-10665
▁maddeler	-10666
▁maçlarda	-10667
▁muvazzaf	-10668
▁numarası	-10669
▁sergilen	-10670
▁sevindir	-10671
▁sistemde	-10672
▁sonuçlan	-10673
▁sorusunu	-10674
▁ulaştığı	-10675
▁yoğunluk	-10676
▁yılların	-10677
▁önlemler	-10678
▁İnsanlar	-10679
▁Platformu	-10680
▁Yarışması	-10681
▁anlaşıldı	-10682
▁bırakılan	-10683
▁eksikliği	-10684
▁girdiğini	-10685
▁kararında	-10686
▁kazasında	-10687
▁nitelikli	-10688
▁oluşturdu	-10689
▁ordusunun	-10690
▁programda	-10691
▁sigortası	-10692
▁sorunlara	-10693
▁sürdüğünü	-10694
▁talebiyle	-10695
▁yönetmeni	-10696
▁yönlerden	-10697
▁yılındaki	-10698
▁Brezilyalı	-10699
▁Kazakistan	-10700
▁ailelerine	-10701
▁başlamıştı	-10702
▁dönemlerde	-10703
▁gösterildi	-10704
▁hissediyor	-10705
▁hükümetine	-10706
▁inanıyoruz	-10707
▁maddesinin	-10708
▁programına	-10709
▁sanatçının	-10710
▁sonuçlanan	-10711
▁yapılmıştı	-10712
▁Operasyonda	-10713
▁azaltılması	-10714
▁fotoğraflar	-10715
▁gayrimenkul	-10716
▁giderilmesi	-10717
▁konuşmasını	-10718
▁sorunlarını	-10719
▁Hastanesinde	-10720
▁içerisindeki	-10721
▁uygulamaları	-10722
▁hastalıkların	-10723
▁yetkililerinin	-10724
11	-10725
6,	-10726
ON	-10727
Ama	-10728
bes	-10729
epe	-10730
evk	-10731
gov	-10732
jek	-10733
rut	-10734
sem	-10735
çık	-10736
İSK	-10737
▁AM	-10738
▁Tu	-10739
▁fı	-10740
▁va	-10741
anıp	-10742
enko	-10743
inek	-10744
inho	-10745
otof	-10746
piti	-10747
rian	-10748
yaka	-10749
ünce	-10750
İran	-10751
▁190	-10752
▁193	-10753
▁20.	-10754
▁Ele	-10755
▁Mek	-10756
▁Mis	-10757
▁Rap	-10758
▁Tuz	-10759
▁ihl	-10760
▁vah	-10761
▁yin	-10762
▁yuv	-10763
▁Önc	-10764
arist	-10765
iyesi	-10766
medik	-10767
ozgat	-10768
üneyt	-10769
▁Başk	-10770
▁Eyüp	-10771
▁Mich	-10772
▁Psik	-10773
▁Stev	-10774
▁TOKİ	-10775
▁arzu	-10776
▁bran	-10777
▁dans	-10778
▁hali	-10779
▁ikiz	-10780
▁içen	-10781
▁litr	-10782
▁Çarp	-10783
▁Ürün	-10784
▁şikâ	-10785
Devlet	-10786
mazken	-10787
çileri	-10788
İsrail	-10789
▁2016’	-10790
▁Berat	-10791
▁Erdal	-10792
▁Flori	-10793
▁Nijer	-10794
▁Pekin	-10795
▁Yarım	-10796
▁Yunus	-10797
▁diler	-10798
▁direk	-10799
▁döner	-10800
▁idrar	-10801
▁işlev	-10802
▁korku	-10803
▁kıdem	-10804
▁oynat	-10805
▁sebze	-10806
▁yumuş	-10807
▁Çözüm	-10808
▁çekiş	-10809
▁çözül	-10810
▁üzeri	-10811
▁İrfan	-10812
▁İsmet	-10813
▁İstik	-10814
debiyat	-10815
lıyoruz	-10816
▁Burdur	-10817
▁Kuveyt	-10818
▁Sokağı	-10819
▁Yağmur	-10820
▁Zengin	-10821
▁beklet	-10822
▁cemaat	-10823
▁cüzdan	-10824
▁egemen	-10825
▁kongre	-10826
▁kurumu	-10827
▁maçtan	-10828
▁mütala	-10829
▁temmuz	-10830
▁tutarı	-10831
▁yoksun	-10832
▁örneği	-10833
▁üzüntü	-10834
edikleri	-10835
madığına	-10836
▁Android	-10837
▁Reuters	-10838
▁Windows	-10839
▁Yönetic	-10840
▁aktivit	-10841
▁alanına	-10842
▁büyüyen	-10843
▁bırakma	-10844
▁domates	-10845
▁duruyor	-10846
▁giydiği	-10847
▁görünce	-10848
▁herkesi	-10849
▁işletme	-10850
▁kalıntı	-10851
▁kapatan	-10852
▁kişiyle	-10853
▁koyduğu	-10854
▁olmanın	-10855
▁ribaund	-10856
▁sonuçla	-10857
▁tespiti	-10858
▁ulaşmak	-10859
▁veriler	-10860
▁vizyona	-10861
▁yararlı	-10862
▁çıkmaya	-10863
▁Şentürk	-10864
▁Sekreter	-10865
▁adımları	-10866
▁anlayışı	-10867
▁destekli	-10868
▁erkekler	-10869
▁ilişkisi	-10870
▁kavuştur	-10871
▁kaybolan	-10872
▁konuşmak	-10873
▁merdiven	-10874
▁ormanlık	-10875
▁seviyeye	-10876
▁taşınmaz	-10877
▁yaptılar	-10878
▁zamandır	-10879
▁zamanlar	-10880
▁çarpması	-10881
▁Ergenekon	-10882
▁Kaymakamı	-10883
▁alacağını	-10884
▁annesinin	-10885
▁başarılar	-10886
▁bulunarak	-10887
▁değerinin	-10888
▁değerleri	-10889
▁fonksiyon	-10890
▁göstermek	-10891
▁istenilen	-10892
▁kadrosuna	-10893
▁kadınlara	-10894
▁koyduğunu	-10895
▁sahipleri	-10896
▁telefonda	-10897
▁uzmanları	-10898
▁çalışmada	-10899
▁çatışmada	-10900
▁öldürülen	-10901
▁İlişkiler	-10902
▁şartlarda	-10903
▁bankaların	-10904
▁beklendiği	-10905
▁düşünmüyor	-10906
▁federasyon	-10907
▁geldiğinde	-10908
▁karşılaşma	-10909
▁kaydederek	-10910
▁nedenlerle	-10911
▁sanıkların	-10912
▁tabancayla	-10913
▁tamamlayan	-10914
▁toplantıya	-10915
▁yönetimine	-10916
▁açıklanacak	-10917
▁birbirinden	-10918
▁edilmesinin	-10919
▁getirildiği	-10920
▁sorumluluğu	-10921
▁toplantının	-10922
▁çalışanları	-10923
▁Şüphelilerin	-10924
▁bilgilendirme	-10925
▁hipertansiyon	-10926
▁tutuklanmıştı	-10927
▁geliştirilmesi	-10928
▁kullanıcıların	-10929
8)	-10930
At	-10931
gs	-10932
İM	-10933
-30	-10934
Doğ	-10935
Mar	-10936
Mil	-10937
ace	-10938
ava	-10939
cül	-10940
end	-10941
ese	-10942
fuk	-10943
hay	-10944
ksi	-10945
kul	-10946
lit	-10947
ove	-10948
sia	-10949
vde	-10950
üng	-10951
▁3’	-10952
▁92	-10953
amuk	-10954
azen	-10955
evre	-10956
fica	-10957
guay	-10958
mann	-10959
üman	-10960
ğüne	-10961
▁10’	-10962
▁21.	-10963
▁350	-10964
▁AYM	-10965
▁Aşk	-10966
▁Gay	-10967
▁Hoc	-10968
▁Hur	-10969
▁Kum	-10970
▁Kök	-10971
▁Muz	-10972
▁Nef	-10973
▁Ton	-10974
▁izi	-10975
▁kli	-10976
▁kuz	-10977
▁uyk	-10978
▁İlç	-10979
▁şim	-10980
ansal	-10981
astik	-10982
ation	-10983
bakan	-10984
ettin	-10985
kleri	-10986
layın	-10987
leyip	-10988
opoli	-10989
oyolu	-10990
tekin	-10991
umuzu	-10992
yarak	-10993
▁Born	-10994
▁Doğa	-10995
▁Esra	-10996
▁Juli	-10997
▁Köln	-10998
▁Play	-10999
▁Umar	-11000
▁atak	-11001
▁ünit	-11002
▁ışın	-11003
cinsel	-11004
dükten	-11005
ilmeli	-11006
iğinin	-11007
▁Bahar	-11008
▁Başka	-11009
▁Caner	-11010
▁Fevzi	-11011
▁Gomez	-11012
▁Hamza	-11013
▁Kazan	-11014
▁Oktay	-11015
▁Sport	-11016
▁açığa	-11017
▁becer	-11018
▁boyun	-11019
▁dostu	-11020
▁figür	-11021
▁işini	-11022
▁kanlı	-11023
▁muhat	-11024
▁saati	-11025
▁sanki	-11026
▁tünel	-11027
▁Çorum	-11028
▁çifti	-11029
▁ölçüm	-11030
▁üzgün	-11031
dükleri	-11032
landiya	-11033
▁Antren	-11034
▁Burhan	-11035
▁Egemen	-11036
▁Gerçek	-11037
▁Marmar	-11038
▁Petrol	-11039
▁adliye	-11040
▁anlama	-11041
▁azalış	-11042
▁bahset	-11043
▁bizzat	-11044
▁bulama	-11045
▁cansız	-11046
▁dükkan	-11047
▁ederiz	-11048
▁etapta	-11049
▁fırtın	-11050
▁geçişi	-11051
▁güçlük	-11052
▁harika	-11053
▁iletti	-11054
▁isteği	-11055
▁jandar	-11056
▁kronik	-11057
▁kulübü	-11058
▁mecbur	-11059
▁okulda	-11060
▁randev	-11061
▁skorla	-11062
▁uyumlu	-11063
▁zorlan	-11064
▁çözmek	-11065
▁İslami	-11066
lemeleri	-11067
▁Antonio	-11068
▁Ardahan	-11069
▁Benfica	-11070
▁Florida	-11071
▁Johnson	-11072
▁Köprüsü	-11073
▁Sağlığı	-11074
▁Suriyel	-11075
▁almadan	-11076
▁artacak	-11077
▁balıkçı	-11078
▁değiliz	-11079
▁direniş	-11080
▁dönüştü	-11081
▁fedakar	-11082
▁gitmesi	-11083
▁hizmete	-11084
▁kapandı	-11085
▁kuruldu	-11086
▁olduğum	-11087
▁oranını	-11088
▁oynuyor	-11089
▁pankart	-11090
▁periyot	-11091
▁projede	-11092
▁sunuldu	-11093
▁törende	-11094
▁Öğrenci	-11095
▁Ülkenin	-11096
eceksiniz	-11097
emediğini	-11098
ilmesiyle	-11099
▁Ameliyat	-11100
▁Taraftar	-11101
▁aileleri	-11102
▁başlatan	-11103
▁gelirken	-11104
▁inceledi	-11105
▁kaybeder	-11106
▁kentteki	-11107
▁muhabiri	-11108
▁mükemmel	-11109
▁Bunlardan	-11110
▁Endonezya	-11111
▁Kuvvetler	-11112
▁deneyimli	-11113
▁desteğini	-11114
▁eleştirdi	-11115
▁gerginlik	-11116
▁görüyorum	-11117
▁haklarını	-11118
▁ilaçların	-11119
▁istemiyor	-11120
▁kapatıldı	-11121
▁kullanıla	-11122
▁kurtarmak	-11123
▁süresinin	-11124
▁tehlikeye	-11125
▁verilerin	-11126
▁yükseltti	-11127
▁üreticisi	-11128
▁şampiyonu	-11129
▁birliğiyle	-11130
▁edilebilir	-11131
▁hizmetleri	-11132
▁incelemeye	-11133
▁kesimlerde	-11134
▁politikası	-11135
▁yerlerinde	-11136
▁çalışanlar	-11137
▁İstihbarat	-11138
▁artırılması	-11139
▁bırakılması	-11140
▁dakikasında	-11141
▁programının	-11142
▁söylediğini	-11143
▁ilişkilerini	-11144
▁kaldırılarak	-11145
▁metrekarelik	-11146
▁yargılandığı	-11147
▁çevresindeki	-11148
▁belirlemelere	-11149
▁şüphelilerden	-11150
▁operasyonlarda	-11151
1,	-11152
45	-11153
5’	-11154
DS	-11155
IA	-11156
TA	-11157
ee	-11158
-0'	-11159
Geç	-11160
has	-11161
kit	-11162
ple	-11163
şet	-11164
▁ka	-11165
ESCO	-11166
adın	-11167
avir	-11168
coni	-11169
ehli	-11170
ence	-11171
iyel	-11172
izah	-11173
kesi	-11174
lumu	-11175
matı	-11176
meme	-11177
tımı	-11178
ulma	-11179
üven	-11180
▁2-2	-11181
▁900	-11182
▁Cur	-11183
▁Fur	-11184
▁Kos	-11185
▁Rek	-11186
▁Tot	-11187
▁maz	-11188
▁mon	-11189
▁neh	-11190
▁ons	-11191
barek	-11192
bilen	-11193
halde	-11194
ipras	-11195
subay	-11196
venin	-11197
yanus	-11198
ıştır	-11199
▁1000	-11200
▁Altı	-11201
▁Dani	-11202
▁Ebru	-11203
▁Geri	-11204
▁Kürk	-11205
▁Oysa	-11206
▁Shan	-11207
▁Slov	-11208
▁Tanı	-11209
▁Tapu	-11210
▁Tunç	-11211
▁alet	-11212
▁ayın	-11213
▁aşan	-11214
▁ceph	-11215
▁hayv	-11216
▁ilik	-11217
▁imar	-11218
▁içki	-11219
▁muaf	-11220
▁sayg	-11221
▁semp	-11222
▁üçte	-11223
akende	-11224
amızın	-11225
atikan	-11226
ebilen	-11227
etonya	-11228
sinler	-11229
yasını	-11230
ılmalı	-11231
▁Alevi	-11232
▁Cemil	-11233
▁Erkal	-11234
▁Hafta	-11235
▁Hüsnü	-11236
▁Jones	-11237
▁Maçın	-11238
▁Vakıf	-11239
▁ahlak	-11240
▁ateşe	-11241
▁atlet	-11242
▁casus	-11243
▁dokuz	-11244
▁etmey	-11245
▁ideal	-11246
▁karla	-11247
▁katil	-11248
▁kente	-11249
▁konak	-11250
▁kucak	-11251
▁köylü	-11252
▁makal	-11253
▁oraya	-11254
▁rejim	-11255
▁sendi	-11256
▁turda	-11257
▁yerin	-11258
▁Çubuk	-11259
▁Öksüz	-11260
▁ürünü	-11261
başkanı	-11262
erlerin	-11263
larınız	-11264
parator	-11265
▁Boston	-11266
▁Bürosu	-11267
▁Cüneyt	-11268
▁Göktaş	-11269
▁Hersek	-11270
▁Sinema	-11271
▁Thomas	-11272
▁Yozgat	-11273
▁almayı	-11274
▁bulmak	-11275
▁diledi	-11276
▁direkt	-11277
▁girmek	-11278
▁golünü	-11279
▁görmüş	-11280
▁keskin	-11281
▁reddet	-11282
▁takibe	-11283
▁termin	-11284
▁yarala	-11285
▁yenilg	-11286
▁yollar	-11287
▁üstüne	-11288
▁üyeler	-11289
lerinizi	-11290
leyeceği	-11291
▁Kocaman	-11292
▁Muhafaz	-11293
▁dediler	-11294
▁dergisi	-11295
▁devriye	-11296
▁diyorum	-11297
▁dünyaca	-11298
▁düşüyor	-11299
▁gelmedi	-11300
▁giriyor	-11301
▁gözetim	-11302
▁ilerlem	-11303
▁isminin	-11304
▁kazanın	-11305
▁kurumun	-11306
▁listede	-11307
▁milleti	-11308
▁molotof	-11309
▁mülteci	-11310
▁olmakla	-11311
▁seçimin	-11312
▁yarattı	-11313
▁yumurta	-11314
amadığını	-11315
eceğimizi	-11316
▁Astsubay	-11317
▁Edebiyat	-11318
▁Savcılık	-11319
▁ağırlığı	-11320
▁balistik	-11321
▁belirgin	-11322
▁gündemde	-11323
▁gününden	-11324
▁ilerleme	-11325
▁konuları	-11326
▁kurumlar	-11327
▁metrobüs	-11328
▁riskinin	-11329
▁söylemek	-11330
▁tarihten	-11331
▁yaralama	-11332
▁zanlının	-11333
▁şimdiden	-11334
▁Kaynaklar	-11335
▁Saldırıda	-11336
▁Teşkilatı	-11337
▁Yönetmeli	-11338
▁alınırken	-11339
▁askerleri	-11340
▁beklediği	-11341
▁bulduğunu	-11342
▁davasının	-11343
▁doğusunda	-11344
▁duyuyorum	-11345
▁ekonomisi	-11346
▁ellerinde	-11347
▁gerekirse	-11348
▁girişinde	-11349
▁günümüzde	-11350
▁inanılmaz	-11351
▁incelendi	-11352
▁kanserine	-11353
▁kaplumbağ	-11354
▁karşılaya	-11355
▁kazanarak	-11356
▁nedeninin	-11357
▁oynayacak	-11358
▁sıkıntısı	-11359
▁sınırında	-11360
▁verilmedi	-11361
▁yürütüyor	-11362
▁Finlandiya	-11363
▁adresinden	-11364
▁açıklamayı	-11365
▁belirlemek	-11366
▁mağduriyet	-11367
▁merkezleri	-11368
▁sektörünün	-11369
▁sisteminde	-11370
▁söylüyorum	-11371
▁çoğunlukla	-11372
▁belirlediği	-11373
▁belirtirken	-11374
▁getirdiğini	-11375
▁iddialarını	-11376
▁ilişkilerin	-11377
▁temsilciler	-11378
▁uçaklarının	-11379
▁arkadaşlarım	-11380
▁açıklanmayan	-11381
▁baktığımızda	-11382
▁geliştirdiği	-11383
▁çalışmalarda	-11384
▁çevrelerinde	-11385
▁üniversiteye	-11386
▁belirtilirken	-11387
▁belirtilmişti	-11388
▁Araştırmacılar	-11389
▁kaynaklarından	-11390
GB	-11391
YA	-11392
rd	-11393
▁—	-11394
-16	-11395
FDK	-11396
KBY	-11397
Kim	-11398
Sur	-11399
tiy	-11400
unç	-11401
uth	-11402
öre	-11403
şiv	-11404
▁PS	-11405
▁Pu	-11406
bede	-11407
eber	-11408
eyla	-11409
ight	-11410
lana	-11411
ling	-11412
loud	-11413
oluk	-11414
orit	-11415
rini	-11416
çısı	-11417
ğday	-11418
▁(19	-11419
▁(21	-11420
▁192	-11421
▁Fen	-11422
▁Hel	-11423
▁Hür	-11424
▁Kuy	-11425
▁Lüt	-11426
▁Nil	-11427
▁Peş	-11428
▁Pla	-11429
▁Riz	-11430
▁Saf	-11431
▁Tip	-11432
▁bez	-11433
▁imk	-11434
▁kıt	-11435
▁log	-11436
▁sek	-11437
▁sığ	-11438
▁öyk	-11439
Büyük	-11440
aferi	-11441
affer	-11442
ansta	-11443
ansür	-11444
araya	-11445
ciyle	-11446
duğum	-11447
irler	-11448
küler	-11449
manız	-11450
ongul	-11451
uston	-11452
önmez	-11453
ğiyle	-11454
▁Ateş	-11455
▁Bize	-11456
▁Uçak	-11457
▁Vide	-11458
▁Yüce	-11459
▁arız	-11460
▁aşam	-11461
▁hikâ	-11462
▁kade	-11463
▁mülk	-11464
▁norm	-11465
▁oksi	-11466
▁vaat	-11467
alandı	-11468
lıktan	-11469
▁2008'	-11470
▁2019'	-11471
▁Arama	-11472
▁Camii	-11473
▁Cezay	-11474
▁Cihaz	-11475
▁Engel	-11476
▁Erhan	-11477
▁Gelen	-11478
▁Harun	-11479
▁Kıdem	-11480
▁Metro	-11481
▁Tokat	-11482
▁Yarın	-11483
▁Yağış	-11484
▁anlar	-11485
▁bordo	-11486
▁gayet	-11487
▁macer	-11488
▁prens	-11489
▁sürat	-11490
▁tezah	-11491
▁tütün	-11492
▁İdare	-11493
▁İncel	-11494
bilirim	-11495
silahlı	-11496
▁Hikmet	-11497
▁Kolomb	-11498
▁Necati	-11499
▁Sezgin	-11500
▁Yahudi	-11501
▁Zongul	-11502
▁bulunu	-11503
▁cevabı	-11504
▁derken	-11505
▁hormon	-11506
▁ihlali	-11507
▁işleri	-11508
▁kalkan	-11509
▁kalkış	-11510
▁kavram	-11511
▁kaşığı	-11512
▁klinik	-11513
▁konulu	-11514
▁nefret	-11515
▁odaklı	-11516
▁ortamı	-11517
▁paketi	-11518
▁riskli	-11519
▁sabaha	-11520
▁sahası	-11521
▁Çipras	-11522
▁Şaşmaz	-11523
alardaki	-11524
alisyonu	-11525
lacağını	-11526
liliğini	-11527
▁Cinayet	-11528
▁Moldova	-11529
▁Nicolas	-11530
▁Otoyolu	-11531
▁Stephen	-11532
▁Telefon	-11533
▁Vatikan	-11534
▁başaran	-11535
▁bekledi	-11536
▁bekleme	-11537
▁bombalı	-11538
▁bölgeyi	-11539
▁düşünce	-11540
▁gelince	-11541
▁general	-11542
▁görüşen	-11543
▁hapisle	-11544
▁işçiler	-11545
▁karakol	-11546
▁katında	-11547
▁maçları	-11548
▁menfaat	-11549
▁mesleki	-11550
▁olaydan	-11551
▁olmazsa	-11552
▁sayıyla	-11553
▁senaryo	-11554
▁skandal	-11555
▁sorulan	-11556
▁suikast	-11557
▁yangını	-11558
▁zirvede	-11559
▁ücretli	-11560
ilmesinde	-11561
larımızda	-11562
▁Personel	-11563
▁Portakal	-11564
▁belgeler	-11565
▁bilmiyor	-11566
▁eleştiri	-11567
▁muhtemel	-11568
▁mutluyum	-11569
▁oylamada	-11570
▁seçimler	-11571
▁söyledim	-11572
▁yükümlül	-11573
▁öncesine	-11574
alarındaki	-11575
ilebilecek	-11576
ilmektedir	-11577
▁Başkanlık	-11578
▁Görüşmede	-11579
▁Hizmetler	-11580
▁Sendikası	-11581
▁Zonguldak	-11582
▁binasında	-11583
▁dakikalık	-11584
▁dayanışma	-11585
▁grupların	-11586
▁hastaları	-11587
▁hırsızlık	-11588
▁işleminin	-11589
▁noktasına	-11590
▁sanatçısı	-11591
▁seviyorum	-11592
▁tamamının	-11593
▁teklifini	-11594
▁yarattığı	-11595
▁çalışacak	-11596
▁öldürdüğü	-11597
▁ülkesinde	-11598
▁Haberleşme	-11599
▁beklentisi	-11600
▁beraberlik	-11601
▁bilgilerin	-11602
▁cumhuriyet	-11603
▁gelişmekte	-11604
▁haberlerin	-11605
▁otomobilde	-11606
▁saldırılar	-11607
▁sonuçların	-11608
▁yağışların	-11609
▁Üniversite	-11610
laştıklarını	-11611
▁alındığında	-11612
▁arkadaşımız	-11613
▁etkinlikler	-11614
▁geçirilmesi	-11615
▁uygulanması	-11616
▁yaşadıkları	-11617
▁araştırmanın	-11618
▁açıklanmıştı	-11619
▁başlatıldığı	-11620
▁demokrasinin	-11621
▁düzenlemeler	-11622
▁etkilediğini	-11623
▁merkezindeki	-11624
▁tutuklanarak	-11625
▁teknolojileri	-11626
▁yakınlarındaki	-11627
▁ağırlaştırılmış	-11628
▁değerlendirmesi	-11629
3’	-11630
40	-11631
4’	-11632
65	-11633
67	-11634
MB	-11635
PS	-11636
VM	-11637
eo	-11638
ft	-11639
je	-11640
yL	-11641
öv	-11642
şa	-11643
▁́	-11644
-60	-11645
100	-11646
BİT	-11647
HAL	-11648
aks	-11649
eta	-11650
jde	-11651
opi	-11652
tus	-11653
vad	-11654
▁Ki	-11655
▁Rı	-11656
▁Sn	-11657
▁Sy	-11658
▁Ya	-11659
▁mm	-11660
▁ra	-11661
acan	-11662
adin	-11663
afız	-11664
aseb	-11665
azır	-11666
erde	-11667
esma	-11668
evet	-11669
evin	-11670
main	-11671
yası	-11672
▁12.	-11673
▁2.5	-11674
▁Cas	-11675
▁Efe	-11676
▁Erc	-11677
▁Kun	-11678
▁Lab	-11679
▁Lok	-11680
▁Mag	-11681
▁Riv	-11682
▁Tus	-11683
▁Tüf	-11684
▁Wil	-11685
▁dua	-11686
▁eti	-11687
▁eur	-11688
▁fık	-11689
▁muk	-11690
▁oyu	-11691
▁reç	-11692
▁twe	-11693
BİTAK	-11694
Kendi	-11695
Sayın	-11696
Terör	-11697
cedes	-11698
evler	-11699
ladım	-11700
mayla	-11701
meniz	-11702
yLock	-11703
▁Arif	-11704
▁Avro	-11705
▁Fark	-11706
▁Kahv	-11707
▁Lice	-11708
▁Quar	-11709
▁Tayf	-11710
▁açma	-11711
▁dili	-11712
▁fail	-11713
▁kolu	-11714
▁ofis	-11715
▁oğul	-11716
▁post	-11717
▁suya	-11718
▁yürü	-11719
▁öğün	-11720
▁İhra	-11721
luğuna	-11722
mazlık	-11723
ısınız	-11724
▁Abbas	-11725
▁Altan	-11726
▁Arsen	-11727
▁Leyla	-11728
▁Memur	-11729
▁Neden	-11730
▁Yolcu	-11731
▁anlık	-11732
▁atama	-11733
▁ayağı	-11734
▁enkaz	-11735
▁etnik	-11736
▁geçit	-11737
▁hafız	-11738
▁kontr	-11739
▁korum	-11740
▁maçla	-11741
▁meşru	-11742
▁okulu	-11743
▁oğlum	-11744
▁perde	-11745
▁prote	-11746
▁sanal	-11747
▁sayaç	-11748
▁sperm	-11749
▁tutun	-11750
▁yemin	-11751
▁zirve	-11752
▁Çınar	-11753
▁Özlem	-11754
▁Ürdün	-11755
▁önemi	-11756
▁önünü	-11757
▁Şerif	-11758
▁şartı	-11759
Trabzon	-11760
icileri	-11761
lılıkla	-11762
▁Destek	-11763
▁Furkan	-11764
▁Keskin	-11765
▁Koreli	-11766
▁Normal	-11767
▁Savaşı	-11768
▁Sincan	-11769
▁Zeybek	-11770
▁aniden	-11771
▁arıyor	-11772
▁açıyor	-11773
▁başlar	-11774
▁binada	-11775
▁bizler	-11776
▁etmedi	-11777
▁girişi	-11778
▁güvenc	-11779
▁havaya	-11780
▁işleme	-11781
▁konvoy	-11782
▁mezunu	-11783
▁olunca	-11784
▁saygın	-11785
▁yumurt	-11786
▁yörüng	-11787
▁ödenek	-11788
lığından	-11789
▁Bunları	-11790
▁Kızılay	-11791
▁alkollü	-11792
▁ayrılma	-11793
▁birlikt	-11794
▁bizleri	-11795
▁dayanan	-11796
▁dinleme	-11797
▁dünyayı	-11798
▁düşünen	-11799
▁garanti	-11800
▁geçmeye	-11801
▁ithalat	-11802
▁kadrosu	-11803
▁kalmadı	-11804
▁konteyn	-11805
▁konular	-11806
▁mevzuat	-11807
▁olmuyor	-11808
▁paranın	-11809
▁puanını	-11810
▁salonda	-11811
▁sebeple	-11812
▁siyasal	-11813
▁taahhüt	-11814
▁tezahür	-11815
▁yapılır	-11816
▁yurttaş	-11817
▁çağırdı	-11818
▁şehirde	-11819
▁Kurtarma	-11820
▁Mercedes	-11821
▁Pentagon	-11822
▁filminde	-11823
▁grubunda	-11824
▁ilaçları	-11825
▁içeriyor	-11826
▁kaymakam	-11827
▁kurumsal	-11828
▁maddenin	-11829
▁metreküp	-11830
▁olaylara	-11831
▁sıralama	-11832
▁yaşlarda	-11833
▁yönetici	-11834
▁Ümraniye	-11835
▁çağrılan	-11836
▁Mezarlığı	-11837
▁anlaşmayı	-11838
▁anlaşılan	-11839
▁bonservis	-11840
▁dahilinde	-11841
▁dışarıdan	-11842
▁etmesinin	-11843
▁fiyatının	-11844
▁görülmesi	-11845
▁iddiasına	-11846
▁kalesinde	-11847
▁kayıtlara	-11848
▁kişilerde	-11849
▁kurtulmak	-11850
▁meslektaş	-11851
▁savcılığa	-11852
▁sağlığını	-11853
▁seçiminde	-11854
▁sorununun	-11855
▁uzaklıkta	-11856
▁yapmaları	-11857
▁yargılama	-11858
▁çıkarmaya	-11859
▁öldürüldü	-11860
▁bankacılık	-11861
▁bağlantısı	-11862
▁firmaların	-11863
▁haklarında	-11864
▁kişilerden	-11865
▁kullanmaya	-11866
▁mücadeleye	-11867
▁rahatlıkla	-11868
▁sürdürecek	-11869
▁tartışmaya	-11870
▁tedavisine	-11871
▁teröristin	-11872
▁ulaştığını	-11873
▁verilmişti	-11874
▁çıkacağını	-11875
▁Karayolları	-11876
▁bildirmişti	-11877
▁bulunduğuna	-11878
▁değişikliğe	-11879
▁getirilecek	-11880
▁piyasalarda	-11881
▁sağladığını	-11882
▁yaralıların	-11883
▁yargılanmak	-11884
▁Başkanlığına	-11885
▁Büyükçekmece	-11886
▁ekiplerinden	-11887
▁görüntülendi	-11888
▁hedefleniyor	-11889
▁personelinin	-11890
▁yapılmasının	-11891
▁yaralanmıştı	-11892
▁çatışmaların	-11893
▁örgütlerinin	-11894
▁operasyonunda	-11895
▁öğretmenlerin	-11896
▁araştırmacılar	-11897
▁arkadaşlarının	-11898
▁fiyatlarındaki	-11899
▁hazırlıklarını	-11900
▁tamamlanmasının	-11901
.)	-11902
4,	-11903
7’	-11904
On	-11905
Or	-11906
RA	-11907
uf	-11908
İB	-11909
şu	-11910
Tar	-11911
aki	-11912
asi	-11913
cit	-11914
eld	-11915
fen	-11916
gut	-11917
kif	-11918
lab	-11919
olm	-11920
rap	-11921
vaz	-11922
▁00	-11923
▁06	-11924
▁To	-11925
▁Wi	-11926
▁to	-11927
..."	-11928
afak	-11929
cret	-11930
ifik	-11931
iğit	-11932
opar	-11933
otiv	-11934
uyan	-11935
ılav	-11936
▁1-2	-11937
▁16.	-11938
▁17.	-11939
▁7,5	-11940
▁Des	-11941
▁Hen	-11942
▁Jun	-11943
▁Muş	-11944
▁Ola	-11945
▁Ras	-11946
▁Vic	-11947
▁Yrd	-11948
▁Ziy	-11949
▁doz	-11950
▁evr	-11951
▁oto	-11952
▁ray	-11953
▁rit	-11954
▁sis	-11955
▁tap	-11956
▁toh	-11957
▁umu	-11958
▁çığ	-11959
▁İnf	-11960
danın	-11961
lakat	-11962
steri	-11963
▁Aksa	-11964
▁AİHM	-11965
▁Brun	-11966
▁Dede	-11967
▁Luis	-11968
▁Musa	-11969
▁ODTÜ	-11970
▁West	-11971
▁Yapı	-11972
▁asit	-11973
▁bitk	-11974
▁eksi	-11975
▁eleb	-11976
▁gole	-11977
▁hâlâ	-11978
▁idam	-11979
▁ikil	-11980
▁karn	-11981
▁mate	-11982
▁müsa	-11983
▁uzan	-11984
▁zarf	-11985
▁Çevr	-11986
aliers	-11987
amızda	-11988
anlığa	-11989
fettiş	-11990
ijinal	-11991
imizle	-11992
lileri	-11993
▁2010’	-11994
▁Borsa	-11995
▁Düzce	-11996
▁Frank	-11997
▁Silah	-11998
▁State	-11999
▁Warri	-12000
▁araba	-12001
▁artar	-12002
▁bildi	-12003
▁böbre	-12004
▁dökül	-12005
▁hacmi	-12006
▁infaz	-12007
▁istiş	-12008
▁işine	-12009
▁kapak	-12010
▁koyan	-12011
▁kuran	-12012
▁köklü	-12013
▁mayıs	-12014
▁nesli	-12015
▁odası	-12016
▁puana	-12017
▁soktu	-12018
▁tenis	-12019
▁uçağa	-12020
▁yaban	-12021
▁yuvar	-12022
▁Çinli	-12023
▁şüphe	-12024
diğimiz	-12025
duğunda	-12026
lusconi	-12027
onsolos	-12028
üksiyon	-12029
ülürken	-12030
▁Balyoz	-12031
▁Golden	-12032
▁Körfez	-12033
▁Mevlüt	-12034
▁Slovak	-12035
▁Yasası	-12036
▁amaçla	-12037
▁atmaya	-12038
▁boykot	-12039
▁cezayı	-12040
▁direnç	-12041
▁gittim	-12042
▁görüşü	-12043
▁gününe	-12044
▁kalmak	-12045
▁kamuya	-12046
▁kaptan	-12047
▁kapısı	-12048
▁kaydet	-12049
▁kazası	-12050
▁nakled	-12051
▁namazı	-12052
▁pencer	-12053
▁pilotu	-12054
▁resmen	-12055
▁samimi	-12056
▁yoksul	-12057
▁yüzüne	-12058
ilemeyen	-12059
▁Cenevre	-12060
▁Kendisi	-12061
▁Körfezi	-12062
▁Rektörü	-12063
▁TÜBİTAK	-12064
▁aşağıya	-12065
▁birinde	-12066
▁boyutlu	-12067
▁değindi	-12068
▁dinamik	-12069
▁edenler	-12070
▁gruptan	-12071
▁iddialı	-12072
▁ilaçlar	-12073
▁istedim	-12074
▁işareti	-12075
▁kaçmaya	-12076
▁kültürü	-12077
▁kızının	-12078
▁listeye	-12079
▁merakla	-12080
▁randevu	-12081
▁sahadan	-12082
▁santral	-12083
▁sezonda	-12084
▁uzaktan	-12085
▁yapmadı	-12086
▁yerlere	-12087
▁zanlısı	-12088
▁çıkarma	-12089
▁Belgesel	-12090
▁Boğaziçi	-12091
▁Herhangi	-12092
▁Marmaris	-12093
▁Muzaffer	-12094
▁Osmaniye	-12095
▁Quaresma	-12096
▁Rizespor	-12097
▁Sarıkaya	-12098
▁Singapur	-12099
▁Tatlıses	-12100
▁Williams	-12101
▁adayları	-12102
▁beklenti	-12103
▁bitkisel	-12104
▁grupları	-12105
▁kahvaltı	-12106
▁kamerası	-12107
▁karanlık	-12108
▁kazanmak	-12109
▁konuştuk	-12110
▁kurultay	-12111
▁muhteşem	-12112
▁oranları	-12113
▁tamamını	-12114
▁yaklaştı	-12115
▁yangında	-12116
▁yansıyan	-12117
▁yollarla	-12118
lanmasının	-12119
▁Arkeoloji	-12120
▁Cavaliers	-12121
▁Fethullah	-12122
▁Kardeşler	-12123
▁Yüksekova	-12124
▁aldığımız	-12125
▁davasında	-12126
▁etrafında	-12127
▁eylemleri	-12128
▁güçlerine	-12129
▁havacılık	-12130
▁hayatında	-12131
▁kaynaklar	-12132
▁liderleri	-12133
▁medeniyet	-12134
▁otomobile	-12135
▁patlaması	-12136
▁programın	-12137
▁taşıyacak	-12138
▁tedbirler	-12139
▁zamanında	-12140
▁çocuğunun	-12141
▁Arnavutluk	-12142
▁Yöneticisi	-12143
▁alanındaki	-12144
▁aramalarda	-12145
▁bilinmiyor	-12146
▁erkeklerin	-12147
▁futbolcusu	-12148
▁haberlerde	-12149
▁maddesinde	-12150
▁maçlarında	-12151
▁mücadeleyi	-12152
▁otomobille	-12153
▁paylaşımda	-12154
▁projesinin	-12155
▁sürdürülen	-12156
▁uyguladığı	-12157
▁verdiğimiz	-12158
▁verileceği	-12159
▁yapılandır	-12160
▁Hırvatistan	-12161
▁araçlarının	-12162
▁farkındalık	-12163
▁görüşlerini	-12164
▁laboratuvar	-12165
▁malzemeleri	-12166
▁operasyonla	-12167
▁ürünlerinin	-12168
▁birbirlerine	-12169
▁düzenlemenin	-12170
▁fiyatlarında	-12171
▁ilgilendiren	-12172
▁kullanılarak	-12173
▁uygulamasına	-12174
▁Yükseköğretim	-12175
▁ambulanslarla	-12176
▁öldürüldüğünü	-12177
2,	-12178
2’	-12179
Ah	-12180
ty	-12181
ıy	-12182
’’	-12183
-40	-12184
ATA	-12185
Gör	-12186
KCK	-12187
Yap	-12188
bis	-12189
dit	-12190
dön	-12191
eşe	-12192
gam	-12193
içe	-12194
log	-12195
lub	-12196
rey	-12197
üğü	-12198
ırt	-12199
▁1’	-12200
▁Uç	-12201
▁Öt	-12202
▁Şi	-12203
Ulus	-12204
alli	-12205
asti	-12206
ağan	-12207
ders	-12208
dvan	-12209
efet	-12210
enen	-12211
gücü	-12212
mund	-12213
ozan	-12214
ugay	-12215
çeli	-12216
üste	-12217
▁130	-12218
▁140	-12219
▁15.	-12220
▁40'	-12221
▁450	-12222
▁Cat	-12223
▁Dok	-12224
▁Hul	-12225
▁Kob	-12226
▁Lan	-12227
▁MEB	-12228
▁Meg	-12229
▁Müş	-12230
▁Pal	-12231
▁Pir	-12232
▁Sib	-12233
▁Slo	-12234
▁Yel	-12235
▁Yor	-12236
▁ceb	-12237
▁dey	-12238
▁fit	-12239
▁had	-12240
▁küm	-12241
▁yoğ	-12242
▁Çiğ	-12243
▁Şev	-12244
Böyle	-12245
Dünya	-12246
culuk	-12247
emeye	-12248
eyici	-12249
gazin	-12250
grama	-12251
likte	-12252
minin	-12253
temiz	-12254
vador	-12255
çarşı	-12256
ınıza	-12257
ıplak	-12258
▁1998	-12259
▁Atak	-12260
▁Evde	-12261
▁Herk	-12262
▁Mour	-12263
▁Okan	-12264
▁Plus	-12265
▁Ulaş	-12266
▁Uçar	-12267
▁algı	-12268
▁artı	-12269
▁başa	-12270
▁darp	-12271
▁faci	-12272
▁koku	-12273
▁koşt	-12274
▁spek	-12275
▁tela	-12276
▁ömür	-12277
▁Şans	-12278
amanın	-12279
berlik	-12280
eliğin	-12281
eğinde	-12282
melere	-12283
osunda	-12284
tamonu	-12285
tırken	-12286
ınızda	-12287
▁Afyon	-12288
▁Alpar	-12289
▁Altay	-12290
▁Bazen	-12291
▁Bordo	-12292
▁Erden	-12293
▁Kaide	-12294
▁Prens	-12295
▁Yılın	-12296
▁alını	-12297
▁ambar	-12298
▁aradı	-12299
▁arşiv	-12300
▁aslan	-12301
▁bozul	-12302
▁dekor	-12303
▁durak	-12304
▁gövde	-12305
▁günkü	-12306
▁hamil	-12307
▁iltih	-12308
▁iskel	-12309
▁kader	-12310
▁kayak	-12311
▁motiv	-12312
▁nihai	-12313
▁nikah	-12314
▁nişan	-12315
▁sayfa	-12316
▁senin	-12317
▁tarzı	-12318
▁tasla	-12319
▁titiz	-12320
▁şükür	-12321
Almanya	-12322
izasyon	-12323
lüğüyle	-12324
tılarak	-12325
▁Atilla	-12326
▁Banvit	-12327
▁Carlos	-12328
▁Coşkun	-12329
▁Fikret	-12330
▁Kürtçe	-12331
▁Mevcut	-12332
▁Rocket	-12333
▁Seyhan	-12334
▁Sürücü	-12335
▁Tercih	-12336
▁aradan	-12337
▁basını	-12338
▁bizden	-12339
▁boşluk	-12340
▁düzeni	-12341
▁ekrana	-12342
▁iftira	-12343
▁kaybed	-12344
▁kuyruk	-12345
▁lezzet	-12346
▁nereye	-12347
▁okulun	-12348
▁otelde	-12349
▁rejimi	-12350
▁sendik	-12351
▁sızdır	-12352
▁tanıma	-12353
▁tatili	-12354
▁yazısı	-12355
landırma	-12356
▁Adaylar	-12357
▁Bununla	-12358
▁Dünyada	-12359
▁Houston	-12360
▁aracını	-12361
▁buluşan	-12362
▁cezalar	-12363
▁düşünür	-12364
▁etmenin	-12365
▁genelde	-12366
▁kalmayı	-12367
▁kanunun	-12368
▁kesildi	-12369
▁kısmını	-12370
▁onlarla	-12371
▁projeye	-12372
▁puanlık	-12373
▁trafiği	-12374
▁türleri	-12375
▁uyandır	-12376
▁yayılan	-12377
▁yitiren	-12378
▁yolunun	-12379
▁Çankaya	-12380
▁önünden	-12381
▁öğrenim	-12382
▁üyeliği	-12383
▁şirkete	-12384
▁Bağımsız	-12385
▁Başsavcı	-12386
▁Danıştay	-12387
▁Mourinho	-12388
▁Warriors	-12389
▁alamayan	-12390
▁alınıyor	-12391
▁diyorlar	-12392
▁edeceğim	-12393
▁filmleri	-12394
▁geçerken	-12395
▁geçersiz	-12396
▁hattının	-12397
▁heyecanı	-12398
▁ilişkiye	-12399
▁kararlar	-12400
▁konudaki	-12401
▁kıymetli	-12402
▁mesajlar	-12403
▁müzisyen	-12404
▁sağlanan	-12405
▁seçeneği	-12406
▁tatbikat	-12407
▁yargının	-12408
▁yasadışı	-12409
▁çocuğunu	-12410
▁İstiklal	-12411
▁şimdilik	-12412
▁Demokrasi	-12413
▁Duruşmada	-12414
▁Kastamonu	-12415
▁Kurtulmuş	-12416
▁Yaralanan	-12417
▁Yönetmeni	-12418
▁ailelerin	-12419
▁ailesiyle	-12420
▁alanların	-12421
▁ayrılarak	-12422
▁ayrılması	-12423
▁başvurusu	-12424
▁bıraktığı	-12425
▁durumları	-12426
▁düşünülen	-12427
▁ekiplerin	-12428
▁elimizden	-12429
▁faaliyeti	-12430
▁hazırladı	-12431
▁heyetinin	-12432
▁hükümleri	-12433
▁iddianame	-12434
▁imzalanan	-12435
▁katılarak	-12436
▁katılması	-12437
▁katılımcı	-12438
▁matematik	-12439
▁milyondan	-12440
▁nitelikte	-12441
▁okullarda	-12442
▁paylaşımı	-12443
▁polisinin	-12444
▁sorumlusu	-12445
▁vereceğiz	-12446
▁vermesini	-12447
▁yatırımcı	-12448
▁yollardan	-12449
▁çekiliyor	-12450
▁Bakanlığın	-12451
▁Berlusconi	-12452
▁Sözleşmesi	-12453
▁bağışıklık	-12454
▁bireylerin	-12455
▁dokunulmaz	-12456
▁dünyasında	-12457
▁dünyasının	-12458
▁etkinlikte	-12459
▁festivalin	-12460
▁havalandır	-12461
▁ihtiyacını	-12462
▁kamuoyunun	-12463
▁karşılamak	-12464
▁kullanacak	-12465
▁kırsalında	-12466
▁mürettebat	-12467
▁patlamanın	-12468
▁planladığı	-12469
▁sayfasında	-12470
▁seviyesini	-12471
▁sistemiyle	-12472
lamayacağını	-12473
▁Havayolları	-12474
▁Milletvekil	-12475
▁belirsizlik	-12476
▁değiştirmek	-12477
▁işlemlerini	-12478
▁yakalanarak	-12479
▁yapılanması	-12480
▁yetkililere	-12481
▁Koordinatörü	-12482
▁askerlerinin	-12483
▁etkinlikleri	-12484
▁gönderildiği	-12485
▁gördüklerini	-12486
▁tamamlanması	-12487
▁uygulamasını	-12488
▁bulunmaktadır	-12489
▁görüntülerini	-12490
▁sorumluluğunu	-12491
▁uygulamasının	-12492
▁Komutanlığında	-12493
▁olumsuzluklara	-12494
▁temsilcilerinin	-12495
▁vatandaşlarının	-12496
//	-12497
MS	-12498
ky	-12499
ûm	-12500
İY	-12501
▁&	-12502
.05	-12503
000	-12504
://	-12505
Siz	-12506
Top	-12507
Yen	-12508
Yıl	-12509
akk	-12510
amı	-12511
cal	-12512
eff	-12513
ero	-12514
hiş	-12515
ila	-12516
tah	-12517
ube	-12518
val	-12519
ves	-12520
İlk	-12521
▁03	-12522
▁ye	-12523
ayım	-12524
esan	-12525
gili	-12526
hale	-12527
ipin	-12528
izli	-12529
riye	-12530
▁17'	-12531
▁180	-12532
▁3-4	-12533
▁Ağa	-12534
▁Gro	-12535
▁Keç	-12536
▁Koy	-12537
▁MYK	-12538
▁Mağ	-12539
▁Meş	-12540
▁Pod	-12541
▁Toy	-12542
▁Vur	-12543
▁ard	-12544
▁yur	-12545
▁ÖTV	-12546
dığım	-12547
gatif	-12548
izmin	-12549
lerse	-12550
▁Ders	-12551
▁Mahm	-12552
▁Post	-12553
▁Sony	-12554
▁Star	-12555
▁Tuna	-12556
▁Ufuk	-12557
▁Yarı	-12558
▁Ziya	-12559
▁akım	-12560
▁arta	-12561
▁harç	-12562
▁içme	-12563
▁menz	-12564
▁müze	-12565
▁rolü	-12566
▁tuta	-12567
▁zevk	-12568
▁Üssü	-12569
Burada	-12570
Suriye	-12571
alonya	-12572
aretta	-12573
arıyla	-12574
eterin	-12575
ettepe	-12576
hanesi	-12577
▁Atina	-12578
▁Belki	-12579
▁Borus	-12580
▁Hakem	-12581
▁Hayır	-12582
▁Holly	-12583
▁Ladin	-12584
▁Ligde	-12585
▁Miami	-12586
▁Nehri	-12587
▁Ofisi	-12588
▁Scott	-12589
▁Sedat	-12590
▁Topal	-12591
▁Vergi	-12592
▁aksam	-12593
▁binin	-12594
▁büyüt	-12595
▁dalga	-12596
▁dersi	-12597
▁eşleş	-12598
▁gümüş	-12599
▁hadis	-12600
▁hayli	-12601
▁ilacı	-12602
▁infil	-12603
▁kayın	-12604
▁kurtu	-12605
▁ligin	-12606
▁mayın	-12607
▁metab	-12608
▁moral	-12609
▁panik	-12610
▁plana	-12611
▁sandı	-12612
▁sözde	-12613
▁verim	-12614
▁verip	-12615
▁vuran	-12616
▁yapın	-12617
▁yapıt	-12618
▁ödüle	-12619
▁önlen	-12620
▁İnönü	-12621
▁şehri	-12622
esterol	-12623
lıların	-12624
mıyorum	-12625
ortmund	-12626
▁Ceyhan	-12627
▁Ceylan	-12628
▁Daniel	-12629
▁Filmin	-12630
▁Limanı	-12631
▁Mescid	-12632
▁Raporu	-12633
▁Rıdvan	-12634
▁Uludağ	-12635
▁asıllı	-12636
▁ağabey	-12637
▁bastır	-12638
▁başsav	-12639
▁ilçeye	-12640
▁izleme	-12641
▁kesici	-12642
▁mektub	-12643
▁müraca	-12644
▁okuyan	-12645
▁provok	-12646
▁rapora	-12647
▁seferi	-12648
▁servet	-12649
▁sözler	-12650
▁vermem	-12651
▁yönüne	-12652
▁zararı	-12653
▁çocuğa	-12654
▁ödenen	-12655
alarımız	-12656
eceğiniz	-12657
owerbank	-12658
ılmaması	-12659
▁Cerrahi	-12660
▁Dağıtım	-12661
▁Katalan	-12662
▁Kavşağı	-12663
▁Mevlana	-12664
▁Mübarek	-12665
▁Nükleer	-12666
▁Onların	-12667
▁Rockets	-12668
▁alınmak	-12669
▁ağabeyi	-12670
▁bazında	-12671
▁başlığı	-12672
▁bedelli	-12673
▁değişti	-12674
▁federal	-12675
▁gelmeye	-12676
▁istikam	-12677
▁işkence	-12678
▁kalarak	-12679
▁katkısı	-12680
▁liranın	-12681
▁nereden	-12682
▁okuldan	-12683
▁olmasın	-12684
▁olsaydı	-12685
▁peşinde	-12686
▁sürmesi	-12687
▁toplumu	-12688
▁vermeyi	-12689
▁yanlısı	-12690
▁Çevrede	-12691
▁Çubukçu	-12692
▁çarpıcı	-12693
▁çeyreğe	-12694
▁öldürme	-12695
▁öncelik	-12696
▁öğrenen	-12697
▁İhracat	-12698
▁şikâyet	-12699
iliğinden	-12700
lamasının	-12701
▁Kırşehir	-12702
▁Zeybekci	-12703
▁apartman	-12704
▁bağlayan	-12705
▁cevabını	-12706
▁dediğini	-12707
▁edinilen	-12708
▁eksiklik	-12709
▁etkiledi	-12710
▁geçeceği	-12711
▁hakkının	-12712
▁ilişkili	-12713
▁indirimi	-12714
▁kalırken	-12715
▁kamyonet	-12716
▁milliyet	-12717
▁muhafaza	-12718
▁otomotiv	-12719
▁planları	-12720
▁raporunu	-12721
▁rekorunu	-12722
▁sandalye	-12723
▁sektörün	-12724
▁sertifik	-12725
▁seyreden	-12726
▁sonradan	-12727
▁söndürme	-12728
▁sınırına	-12729
▁yürüyüşe	-12730
▁çekilmiş	-12731
▁çekirdek	-12732
▁ürettiği	-12733
lamadığını	-12734
▁Alparslan	-12735
▁Danışmanı	-12736
▁Düzenleme	-12737
▁Karşıyaka	-12738
▁Konferans	-12739
▁Kurulunun	-12740
▁büyüklüğü	-12741
▁doktorlar	-12742
▁durumdaki	-12743
▁etkinliği	-12744
▁formasını	-12745
▁gösterime	-12746
▁hayatının	-12747
▁hizmetler	-12748
▁kontenjan	-12749
▁mahkemede	-12750
▁olmalıdır	-12751
▁telefonun	-12752
▁varlığını	-12753
▁vurularak	-12754
▁yapmasını	-12755
▁yaşıyoruz	-12756
▁yerlerine	-12757
▁yönetimin	-12758
▁öğrenciye	-12759
▁İşbirliği	-12760
▁Alanyaspor	-12761
▁Aralarında	-12762
▁Televizyon	-12763
▁alabilecek	-12764
▁başlığıyla	-12765
▁belirleyen	-12766
▁direksiyon	-12767
▁edilmemesi	-12768
▁erkeklerde	-12769
▁gündeminde	-12770
▁hastanenin	-12771
▁kardeşinin	-12772
▁karşılandı	-12773
▁kaybetmesi	-12774
▁oynayacağı	-12775
▁paylaşıldı	-12776
▁saldırıyla	-12777
▁silahların	-12778
▁tedbirleri	-12779
▁teknolojik	-12780
▁İstanbullu	-12781
▁arkadaşının	-12782
▁gazetesinde	-12783
▁ihtiyacımız	-12784
▁kullanıcısı	-12785
▁sinemasının	-12786
▁teknolojisi	-12787
▁televizyonu	-12788
▁uygulamanın	-12789
▁yapacakları	-12790
▁başkanlığını	-12791
▁bulundukları	-12792
▁edilmektedir	-12793
▁gazetesinden	-12794
▁kullanılıyor	-12795
▁sıcaklığının	-12796
▁vatandaşının	-12797
▁Müdürlüğünden	-12798
▁getirildiğini	-12799
▁kontrolündeki	-12800
▁sıralamasında	-12801
▁yaptırımların	-12802
▁kaldırılmasına	-12803
▁değerlendirilen	-12804
▁kaynaklandığını	-12805
).	-12806
5,	-12807
70	-12808
Ge	-12809
SO	-12810
my	-12811
ço	-12812
-13	-12813
-50	-12814
4),	-12815
Dem	-12816
Tek	-12817
Yön	-12818
abb	-12819
bit	-12820
büz	-12821
fli	-12822
ito	-12823
koz	-12824
ncı	-12825
ned	-12826
rit	-12827
rov	-12828
söz	-12829
sün	-12830
tük	-12831
yem	-12832
İki	-12833
▁Ec	-12834
▁Ep	-12835
▁HT	-12836
▁Yo	-12837
▁oc	-12838
ahya	-12839
ason	-12840
badi	-12841
dela	-12842
etti	-12843
hesi	-12844
idim	-12845
iggs	-12846
ille	-12847
iyad	-12848
oliz	-12849
port	-12850
stat	-12851
ukla	-12852
umcu	-12853
üfus	-12854
ürük	-12855
ğimi	-12856
ğuna	-12857
▁(20	-12858
▁14'	-12859
▁3-2	-12860
▁Acı	-12861
▁Bra	-12862
▁HPV	-12863
▁Nem	-12864
▁Tec	-12865
▁Uru	-12866
▁ker	-12867
▁meg	-12868
▁siv	-12869
diğim	-12870
eveyn	-12871
ezlek	-12872
hayır	-12873
inson	-12874
kestr	-12875
latma	-12876
takım	-12877
umuza	-12878
wagen	-12879
Ülkem	-12880
üsüne	-12881
İnsan	-12882
▁"201	-12883
▁Alty	-12884
▁Chan	-12885
▁Jose	-12886
▁Liga	-12887
▁MKYK	-12888
▁Mini	-12889
▁Olym	-12890
▁PFDK	-12891
▁Tusk	-12892
▁cari	-12893
▁jüri	-12894
▁köşe	-12895
▁Özge	-12896
▁İçin	-12897
▁şunu	-12898
Avrupa	-12899
amıştı	-12900
duğuna	-12901
laoğlu	-12902
▁2007'	-12903
▁2015’	-12904
▁Erken	-12905
▁Heyet	-12906
▁Medya	-12907
▁Melih	-12908
▁Nazlı	-12909
▁Sabri	-12910
▁Sorum	-12911
▁Sözcü	-12912
▁Yayla	-12913
▁adımı	-12914
▁arıza	-12915
▁atlat	-12916
▁bence	-12917
▁damga	-12918
▁derbi	-12919
▁duyan	-12920
▁kalır	-12921
▁kitle	-12922
▁miras	-12923
▁parma	-12924
▁sayın	-12925
▁tekne	-12926
▁testi	-12927
▁tuzak	-12928
▁tıkan	-12929
▁yaral	-12930
▁yenen	-12931
▁yolla	-12932
▁Çeşit	-12933
▁Çolak	-12934
▁çelik	-12935
▁İlyas	-12936
▁şekli	-12937
asküler	-12938
osistem	-12939
▁Gürbüz	-12940
▁Mahall	-12941
▁Müslim	-12942
▁Rapora	-12943
▁Rektör	-12944
▁Sayılı	-12945
▁Senato	-12946
▁Varlık	-12947
▁atıyor	-12948
▁bakmak	-12949
▁birinc	-12950
▁diğeri	-12951
▁dondur	-12952
▁eczacı	-12953
▁efsane	-12954
▁endeks	-12955
▁girmiş	-12956
▁grupta	-12957
▁gücünü	-12958
▁gününü	-12959
▁işçisi	-12960
▁keşfed	-12961
▁kötüye	-12962
▁mesafe	-12963
▁numara	-12964
▁plaket	-12965
▁profil	-12966
▁sembol	-12967
▁sesini	-12968
▁sevinç	-12969
▁seyyar	-12970
▁uçakla	-12971
▁varken	-12972
▁yasama	-12973
▁ziyade	-12974
▁Önceki	-12975
▁Ülkede	-12976
▁şahsın	-12977
larınızı	-12978
lıkların	-12979
meyeceği	-12980
▁Cezayir	-12981
▁açılmış	-12982
▁bağımlı	-12983
▁belgede	-12984
▁bizimle	-12985
▁bölümde	-12986
▁bırakıp	-12987
▁cihazın	-12988
▁düşerek	-12989
▁evinden	-12990
▁girmeye	-12991
▁görülür	-12992
▁harcama	-12993
▁ikramiy	-12994
▁infilak	-12995
▁isterim	-12996
▁kendimi	-12997
▁milyonu	-12998
▁muayene	-12999
▁mülakat	-13000
▁olasılı	-13001
▁ordunun	-13002
▁parçalı	-13003
▁savaşın	-13004
▁sendika	-13005
▁sunacak	-13006
▁taşımak	-13007
▁usulsüz	-13008
▁yaşamın	-13009
▁yerinin	-13010
▁zirveye	-13011
▁ölümcül	-13012
amayacağı	-13013
▁Dortmund	-13014
▁Günaydın	-13015
▁Yenikapı	-13016
▁almasını	-13017
▁attığını	-13018
▁başarısı	-13019
▁başlamak	-13020
▁başlanan	-13021
▁casusluk	-13022
▁cihazlar	-13023
▁diplomat	-13024
▁dışarıya	-13025
▁herhalde	-13026
▁iktidara	-13027
▁kalmıştı	-13028
▁kanserin	-13029
▁kararnam	-13030
▁konsolos	-13031
▁medyadan	-13032
▁olunması	-13033
▁ortaklık	-13034
▁oynarken	-13035
▁oyunları	-13036
▁parasını	-13037
▁raporuna	-13038
▁rüzgarın	-13039
▁saygıyla	-13040
▁sonucuna	-13041
▁sürerken	-13042
▁sürmüştü	-13043
▁takımdan	-13044
▁yerleşti	-13045
▁yolcular	-13046
▁yönünden	-13047
abildiğini	-13048
beyazlılar	-13049
ebildiğini	-13050
▁Anlaşması	-13051
▁Bilimleri	-13052
▁Hollywood	-13053
▁Osmangazi	-13054
▁dayanıklı	-13055
▁değerinde	-13056
▁gerekçesi	-13057
▁kadınları	-13058
▁kenarında	-13059
▁olmasaydı	-13060
▁satılıyor	-13061
▁sağlamaya	-13062
▁serisinin	-13063
▁sokaklara	-13064
▁taraftarı	-13065
▁trafiğine	-13066
▁uygulandı	-13067
▁çalışmayı	-13068
▁Devletleri	-13069
▁alınmasına	-13070
▁apartmanın	-13071
▁bekliyorum	-13072
▁bildirilen	-13073
▁festivalde	-13074
▁görevliler	-13075
▁istiyorlar	-13076
▁kalitesini	-13077
▁kesintisiz	-13078
▁malzemeler	-13079
▁oluşturmak	-13080
▁saatlerine	-13081
▁söyleniyor	-13082
▁tutukluluk	-13083
▁uygulamayı	-13084
▁vurgulanan	-13085
▁çocuklarda	-13086
▁Tartışmanın	-13087
▁araştırması	-13088
▁arkadaşıyla	-13089
▁beklediğini	-13090
▁bulunuyordu	-13091
▁düzenlemeye	-13092
▁gazeteciler	-13093
▁hayvanların	-13094
▁ilçelerinde	-13095
▁kontrolünde	-13096
▁kullanımına	-13097
▁çarptırıldı	-13098
▁dilekçesinde	-13099
▁durumlarının	-13100
▁görevlilerin	-13101
▁hastanelerde	-13102
▁isimlerinden	-13103
▁istikametine	-13104
▁muhaliflerin	-13105
▁organlarında	-13106
▁saldırılarda	-13107
▁toplantısına	-13108
▁kategorisinde	-13109
▁mücadelesinde	-13110
▁faaliyetlerine	-13111
▁çalışanlarının	-13112
▁değerlendirmede	-13113
13	-13114
1’	-13115
Ay	-13116
LO	-13117
Kas	-13118
Kır	-13119
SYK	-13120
TSK	-13121
Tüm	-13122
YPG	-13123
bel	-13124
cük	-13125
eck	-13126
efi	-13127
enç	-13128
eza	-13129
ibe	-13130
pet	-13131
suç	-13132
urn	-13133
zar	-13134
ünc	-13135
şer	-13136
▁AF	-13137
▁AN	-13138
▁AT	-13139
▁Ur	-13140
Daha	-13141
ague	-13142
arik	-13143
ayıt	-13144
azıt	-13145
biyo	-13146
elin	-13147
ella	-13148
elçi	-13149
emem	-13150
flix	-13151
idor	-13152
ment	-13153
olik	-13154
tici	-13155
ward	-13156
yeri	-13157
▁107	-13158
▁128	-13159
▁24.	-13160
▁27.	-13161
▁30’	-13162
▁60'	-13163
▁80'	-13164
▁Beh	-13165
▁Ceb	-13166
▁Cum	-13167
▁Ebu	-13168
▁FBI	-13169
▁Fre	-13170
▁Lam	-13171
▁Lav	-13172
▁Mun	-13173
▁Müt	-13174
▁Nar	-13175
▁Nob	-13176
▁Ram	-13177
▁Rio	-13178
▁Sad	-13179
▁Som	-13180
▁Zan	-13181
▁jet	-13182
▁rev	-13183
▁Şid	-13184
-2017	-13185
Bunun	-13186
beyli	-13187
dinli	-13188
eğmen	-13189
iryak	-13190
iyete	-13191
kırım	-13192
siyum	-13193
tonun	-13194
tılar	-13195
uştan	-13196
▁Gökç	-13197
▁Kıyı	-13198
▁Mail	-13199
▁Mike	-13200
▁Pomp	-13201
▁Prot	-13202
▁Tipi	-13203
▁What	-13204
▁afet	-13205
▁atıf	-13206
▁blog	-13207
▁brüt	-13208
▁flor	-13209
▁hası	-13210
▁imal	-13211
▁inen	-13212
▁kaya	-13213
▁kutu	-13214
▁tapu	-13215
▁türk	-13216
▁utan	-13217
▁öncü	-13218
▁şeye	-13219
evinde	-13220
laşmış	-13221
manuel	-13222
ografi	-13223
çioğlu	-13224
ınacak	-13225
▁Chris	-13226
▁Ergin	-13227
▁Ersan	-13228
▁Gabri	-13229
▁Haluk	-13230
▁Henüz	-13231
▁Merve	-13232
▁Necip	-13233
▁Soğuk	-13234
▁Taner	-13235
▁Tasar	-13236
▁Timur	-13237
▁Yanal	-13238
▁Yoğun	-13239
▁Zarif	-13240
▁aldır	-13241
▁andan	-13242
▁açmak	-13243
▁bulma	-13244
▁dedik	-13245
▁düşme	-13246
▁falan	-13247
▁iyice	-13248
▁kabil	-13249
▁kelep	-13250
▁kutlu	-13251
▁kırdı	-13252
▁minib	-13253
▁posta	-13254
▁saniy	-13255
▁talih	-13256
▁teker	-13257
▁tüken	-13258
▁uydur	-13259
▁yaşar	-13260
▁Ücret	-13261
▁çeliş	-13262
kswagen	-13263
lasyonu	-13264
lıyorum	-13265
ülmüştü	-13266
▁Balkan	-13267
▁Carter	-13268
▁Mahmud	-13269
▁Olympi	-13270
▁Ordusu	-13271
▁Senary	-13272
▁UNESCO	-13273
▁Yalnız	-13274
▁alınıp	-13275
▁azalma	-13276
▁başını	-13277
▁devral	-13278
▁devred	-13279
▁doğusu	-13280
▁gelmek	-13281
▁ilgisi	-13282
▁istism	-13283
▁kaldık	-13284
▁karşıt	-13285
▁kesint	-13286
▁kilolu	-13287
▁oyunda	-13288
▁parası	-13289
▁piyade	-13290
▁rekoru	-13291
▁savaşı	-13292
▁sınıfı	-13293
▁taktik	-13294
▁tanker	-13295
▁tribün	-13296
▁yarışı	-13297
▁yaşına	-13298
▁yaşını	-13299
▁yerler	-13300
▁Çaykur	-13301
▁çirkin	-13302
▁çıkışı	-13303
▁ödüllü	-13304
▁örgüte	-13305
cılığını	-13306
▁Cephesi	-13307
▁Endeksi	-13308
▁Göztepe	-13309
▁Kalkanı	-13310
▁Karaman	-13311
▁Kararda	-13312
▁Mescidi	-13313
▁Sezonun	-13314
▁Sigorta	-13315
▁Siyaset	-13316
▁Ziyaret	-13317
▁aileler	-13318
▁asistle	-13319
▁cezaevi	-13320
▁dönmesi	-13321
▁estetik	-13322
▁etmiyor	-13323
▁geminin	-13324
▁gençlik	-13325
▁hepimiz	-13326
▁ilkokul	-13327
▁itirazı	-13328
▁izinsiz	-13329
▁kavgada	-13330
▁koruyor	-13331
▁muhatap	-13332
▁müşteki	-13333
▁odaklan	-13334
▁savcısı	-13335
▁sevinci	-13336
▁sterlin	-13337
▁törenle	-13338
▁uyarısı	-13339
▁yangına	-13340
▁yarışma	-13341
▁yazılan	-13342
▁üretici	-13343
▁şeyleri	-13344
▁şiddete	-13345
emeyeceği	-13346
▁Fenerbah	-13347
▁Guardian	-13348
▁Nevşehir	-13349
▁Oyunları	-13350
▁atılması	-13351
▁açtığını	-13352
▁bağırsak	-13353
▁binasına	-13354
▁biraraya	-13355
▁ettikten	-13356
▁haberini	-13357
▁haritası	-13358
▁hesabına	-13359
▁karmaşık	-13360
▁kurtuldu	-13361
▁mesafede	-13362
▁mesajını	-13363
▁müracaat	-13364
▁oyuncuyu	-13365
▁perşembe	-13366
▁rakibine	-13367
▁sayfalık	-13368
▁sayısına	-13369
▁takımını	-13370
▁tasarımı	-13371
▁toplayan	-13372
▁uçağının	-13373
▁vermeden	-13374
▁vermiyor	-13375
▁yorumunu	-13376
▁zihinsel	-13377
▁ölümüyle	-13378
▁ötesinde	-13379
lerimizden	-13380
▁Katalonya	-13381
▁ameliyata	-13382
▁anlatarak	-13383
▁aralıksız	-13384
▁arkadaşım	-13385
▁artırıyor	-13386
▁bilgisine	-13387
▁cezasının	-13388
▁defalarca	-13389
▁ekosistem	-13390
▁etkilenen	-13391
▁finansman	-13392
▁getirecek	-13393
▁görüntüsü	-13394
▁içerisine	-13395
▁kaybetmiş	-13396
▁konuşuyor	-13397
▁listesine	-13398
▁okulların	-13399
▁perakende	-13400
▁sevgilisi	-13401
▁takipçisi	-13402
▁talebinin	-13403
▁tedavinin	-13404
▁tutulacak	-13405
▁verebilir	-13406
▁çıkışında	-13407
Trabzonspor	-13408
▁Mahkemenin	-13409
▁Saldırının	-13410
▁aralığında	-13411
▁etmediğini	-13412
▁hazırlandı	-13413
▁isimlerden	-13414
▁katılacağı	-13415
▁kolesterol	-13416
▁kontrolden	-13417
▁oluştuğunu	-13418
▁protestocu	-13419
▁sanatçılar	-13420
▁sürdürdüğü	-13421
▁yayınlandı	-13422
▁zanlıların	-13423
▁açıklamanın	-13424
▁desteklemek	-13425
▁etkileyecek	-13426
▁güneyindeki	-13427
▁incelenmesi	-13428
▁konularında	-13429
▁kullanımını	-13430
▁mücadelenin	-13431
▁nedenlerden	-13432
▁sürücüsünün	-13433
▁taraftarlar	-13434
▁yakınındaki	-13435
▁yaşındayken	-13436
lacivertliler	-13437
▁mücadelesini	-13438
▁yaralılardan	-13439
▁ülkelerinden	-13440
▁şampiyonluğa	-13441
▁kaybedenlerin	-13442
▁kullandıkları	-13443
▁müdahalesinin	-13444
▁yapacaklarını	-13445
▁yaralanmasına	-13446
▁kullanıldığını	-13447
▁faaliyetlerinin	-13448
▁kararlaştırıldı	-13449
?’	-13450
Dr	-13451
Es	-13452
PA	-13453
mo	-13454
İR	-13455
.03	-13456
:30	-13457
Bey	-13458
Kah	-13459
ado	-13460
buğ	-13461
byn	-13462
cen	-13463
cev	-13464
con	-13465
gir	-13466
iza	-13467
leg	-13468
nel	-13469
ref	-13470
ush	-13471
ydu	-13472
çik	-13473
üse	-13474
▁"2	-13475
▁01	-13476
▁2’	-13477
▁4’	-13478
▁5’	-13479
▁9,	-13480
▁Ac	-13481
▁Ap	-13482
▁Ph	-13483
▁Vo	-13484
▁sö	-13485
▁vb	-13486
▁İf	-13487
STAN	-13488
SİAD	-13489
Time	-13490
aker	-13491
anse	-13492
aplı	-13493
cili	-13494
culu	-13495
dyum	-13496
elal	-13497
idro	-13498
imal	-13499
iyop	-13500
izme	-13501
sadi	-13502
tone	-13503
yaya	-13504
çası	-13505
çılı	-13506
özel	-13507
▁1.3	-13508
▁102	-13509
▁104	-13510
▁170	-13511
▁4-0	-13512
▁5-6	-13513
▁50'	-13514
▁750	-13515
▁Alb	-13516
▁Bru	-13517
▁Cer	-13518
▁Dah	-13519
▁Dom	-13520
▁Fab	-13521
▁Gem	-13522
▁Kiş	-13523
▁Nak	-13524
▁Nik	-13525
▁Rub	-13526
▁Saç	-13527
▁Süm	-13528
▁Ten	-13529
▁izn	-13530
▁kıv	-13531
▁sos	-13532
▁sus	-13533
▁vat	-13534
▁öte	-13535
▁Şin	-13536
Artık	-13537
Bütün	-13538
ablus	-13539
bosna	-13540
eliği	-13541
leyiş	-13542
lunun	-13543
panya	-13544
▁Akif	-13545
▁Bang	-13546
▁Eyal	-13547
▁Hoca	-13548
▁IKBY	-13549
▁Kalp	-13550
▁Kazı	-13551
▁Kula	-13552
▁Kuru	-13553
▁Kuzu	-13554
▁News	-13555
▁Pres	-13556
▁Stra	-13557
▁Zeki	-13558
▁aksi	-13559
▁alık	-13560
▁band	-13561
▁bant	-13562
▁boks	-13563
▁bron	-13564
▁esir	-13565
▁göze	-13566
▁kafe	-13567
▁notu	-13568
▁sars	-13569
▁türb	-13570
▁şair	-13571
▁şike	-13572
iciler	-13573
oterap	-13574
rahman	-13575
▁09.00	-13576
▁19.00	-13577
▁2011’	-13578
▁Akdağ	-13579
▁Bölüm	-13580
▁Dolma	-13581
▁Elvan	-13582
▁Karay	-13583
▁Rakka	-13584
▁Rober	-13585
▁Talat	-13586
▁Tarık	-13587
▁Whats	-13588
▁Yiğit	-13589
▁Yürüy	-13590
▁aydan	-13591
▁azami	-13592
▁bakar	-13593
▁biten	-13594
▁biçim	-13595
▁budur	-13596
▁damat	-13597
▁ihrac	-13598
▁kalıp	-13599
▁poşet	-13600
▁radyo	-13601
▁tohum	-13602
▁uzaya	-13603
▁vahşi	-13604
▁Üstün	-13605
▁çekin	-13606
▁çekme	-13607
▁çoğal	-13608
▁ödeye	-13609
▁önder	-13610
▁özerk	-13611
▁İnfaz	-13612
amaları	-13613
anların	-13614
ehlivan	-13615
meliyiz	-13616
rasında	-13617
▁Aracın	-13618
▁Arapça	-13619
▁Başbuğ	-13620
▁Corbyn	-13621
▁Ecevit	-13622
▁Kandil	-13623
▁Lisans	-13624
▁Meslek	-13625
▁Olayda	-13626
▁Piyade	-13627
▁Sergey	-13628
▁Tayfun	-13629
▁Turnuv	-13630
▁aileye	-13631
▁araçla	-13632
▁arbede	-13633
▁atacak	-13634
▁atandı	-13635
▁bakıma	-13636
▁bağlam	-13637
▁bağışı	-13638
▁baştan	-13639
▁belgel	-13640
▁cihazı	-13641
▁esnada	-13642
▁kanalı	-13643
▁kaptır	-13644
▁mahkûm	-13645
▁mahrum	-13646
▁ortala	-13647
▁oturma	-13648
▁oylama	-13649
▁planda	-13650
▁sonsuz	-13651
▁sözünü	-13652
▁takvim	-13653
▁tarafa	-13654
▁temyiz	-13655
▁terörü	-13656
▁uydusu	-13657
▁yaşamı	-13658
▁zarara	-13659
▁Çakmak	-13660
▁Önemli	-13661
▁çarpan	-13662
ulanıyor	-13663
▁Akdoğan	-13664
▁Arsenal	-13665
▁Ekvador	-13666
▁Eğitimi	-13667
▁Gösteri	-13668
▁Hamburg	-13669
▁Karataş	-13670
▁Mahalle	-13671
▁Netflix	-13672
▁Pasifik	-13673
▁Sarıyer	-13674
▁Uruguay	-13675
▁Yetkili	-13676
▁bilişim	-13677
▁bitecek	-13678
▁diyoruz	-13679
▁dolaylı	-13680
▁dönüyor	-13681
▁emisyon	-13682
▁gerilim	-13683
▁görmeye	-13684
▁görüşül	-13685
▁ileride	-13686
▁kaptanı	-13687
▁kimseyi	-13688
▁koridor	-13689
▁krizden	-13690
▁merkeze	-13691
▁millete	-13692
▁obezite	-13693
▁oksijen	-13694
▁okullar	-13695
▁otobüsü	-13696
▁radikal	-13697
▁sayının	-13698
▁valilik	-13699
▁yapılar	-13700
▁yaşadık	-13701
▁yüzünde	-13702
▁yıllara	-13703
▁özgüven	-13704
bildiğini	-13705
formasyon	-13706
lanmasını	-13707
Özellikle	-13708
▁Herkesin	-13709
▁Yardımcı	-13710
▁alandaki	-13711
▁alanlara	-13712
▁almaları	-13713
▁almasına	-13714
▁azalarak	-13715
▁birtakım	-13716
▁büyüklük	-13717
▁cinayeti	-13718
▁cinsiyet	-13719
▁durumdan	-13720
▁edebilir	-13721
▁engellen	-13722
▁gelişimi	-13723
▁girerken	-13724
▁haberdar	-13725
▁hesabını	-13726
▁kaybının	-13727
▁kazanmış	-13728
▁lacivert	-13729
▁makinesi	-13730
▁nezdinde	-13731
▁olanlara	-13732
▁oluştuğu	-13733
▁operatör	-13734
▁orijinal	-13735
▁terminal	-13736
▁yapmamız	-13737
▁yapmanın	-13738
▁yöntemin	-13739
▁zeytinya	-13740
▁Özgürlük	-13741
▁önemlisi	-13742
▁üstünlük	-13743
severlerle	-13744
▁Güvenliği	-13745
▁Hacettepe	-13746
▁Saraçoğlu	-13747
▁dayanarak	-13748
▁dönüşmesi	-13749
▁evlerinin	-13750
▁görevleri	-13751
▁hizmetine	-13752
▁hücreleri	-13753
▁iddiasını	-13754
▁kanalında	-13755
▁kapatılan	-13756
▁karıştığı	-13757
▁konuşması	-13758
▁olacağına	-13759
▁rejiminin	-13760
▁salonunda	-13761
▁sebebiyet	-13762
▁seçilmesi	-13763
▁sürücüler	-13764
▁sıkıntılı	-13765
▁yapıyorum	-13766
▁Ülkemizde	-13767
▁üyelerine	-13768
▁Analistler	-13769
▁Değişiklik	-13770
▁Dolmabahçe	-13771
▁Geliştirme	-13772
▁Partisinin	-13773
▁başladılar	-13774
▁başvurular	-13775
▁beldesinde	-13776
▁etkilediği	-13777
▁fazlasıyla	-13778
▁hayvanları	-13779
▁hazırlayan	-13780
▁inandığını	-13781
▁kazanmıştı	-13782
▁kurumların	-13783
▁mensupları	-13784
▁paylaşarak	-13785
▁programını	-13786
▁sıkıntılar	-13787
▁tedavileri	-13788
▁zorundayız	-13789
▁Şehircilik	-13790
▁Emirlikleri	-13791
▁Hayvancılık	-13792
▁açıklamayla	-13793
▁bazılarının	-13794
▁bağımsızlık	-13795
▁başvuruları	-13796
▁belirtileri	-13797
▁dakikalarda	-13798
▁dolandırıcı	-13799
▁düzenlenmiş	-13800
▁düşündüğünü	-13801
▁düşürülmesi	-13802
▁girişiminde	-13803
▁internetten	-13804
▁istemiyorum	-13805
▁istemiyoruz	-13806
▁kapatılması	-13807
▁liderliğini	-13808
▁muhalefetin	-13809
▁piyasasında	-13810
▁sıkıntıları	-13811
▁sınırındaki	-13812
▁öğretmenler	-13813
▁bırakılmıştı	-13814
▁düzenlendiği	-13815
▁hastalarının	-13816
▁kararlılıkla	-13817
▁kullanılamaz	-13818
▁soruşturmayı	-13819
▁taraftarları	-13820
▁tartışmalara	-13821
▁tehlikesinin	-13822
▁yatırımların	-13823
▁şampiyonluğu	-13824
▁Galatasaraylı	-13825
▁Teknolojileri	-13826
▁gerçekleşmesi	-13827
▁oluşturduğunu	-13828
▁arkadaşlarıyla	-13829
▁fotoğraflarını	-13830
▁vatandaşlarına	-13831
▁Başsavcılığının	-13832
▁gerçekleştiğini	-13833
90	-13834
FE	-13835
Ka	-13836
MK	-13837
Oğ	-13838
-17	-13839
Bar	-13840
Kız	-13841
Yar	-13842
asa	-13843
cao	-13844
cuk	-13845
cım	-13846
igh	-13847
kür	-13848
oğa	-13849
rix	-13850
sah	-13851
sım	-13852
tom	-13853
ure	-13854
uza	-13855
vaç	-13856
yuz	-13857
ınc	-13858
ıtı	-13859
şan	-13860
▁05	-13861
▁2-	-13862
▁HD	-13863
▁Ky	-13864
▁Um	-13865
▁cm	-13866
▁eh	-13867
Evet	-13868
adüf	-13869
amak	-13870
anız	-13871
biye	-13872
cini	-13873
eman	-13874
ento	-13875
oria	-13876
raph	-13877
rarı	-13878
uran	-13879
▁0,1	-13880
▁1,2	-13881
▁10,	-13882
▁105	-13883
▁108	-13884
▁Ayv	-13885
▁BMW	-13886
▁DSP	-13887
▁Fon	-13888
▁Ful	-13889
▁McG	-13890
▁Rey	-13891
▁Rod	-13892
▁Sap	-13893
▁Sık	-13894
▁Tav	-13895
▁cip	-13896
▁dür	-13897
▁göğ	-13898
▁ili	-13899
▁kaş	-13900
▁kot	-13901
▁niş	-13902
▁rot	-13903
▁süs	-13904
▁tay	-13905
▁çuv	-13906
Deniz	-13907
ahtar	-13908
diham	-13909
dyumu	-13910
dıman	-13911
ersey	-13912
ikalı	-13913
inçek	-13914
iyang	-13915
mavil	-13916
mayız	-13917
mları	-13918
oyraz	-13919
under	-13920
venya	-13921
çinin	-13922
ümcek	-13923
ğimde	-13924
ılımı	-13925
▁Aviv	-13926
▁Bizi	-13927
▁Hint	-13928
▁Jack	-13929
▁Love	-13930
▁Maya	-13931
▁Müşt	-13932
▁Tama	-13933
▁Yeri	-13934
▁acel	-13935
▁asır	-13936
▁atma	-13937
▁açıp	-13938
▁damg	-13939
▁erim	-13940
▁gasp	-13941
▁hacı	-13942
▁kayg	-13943
▁kula	-13944
▁kuma	-13945
▁masa	-13946
▁mevz	-13947
▁solu	-13948
▁taze	-13949
▁teyz	-13950
▁ultr	-13951
▁uyuş	-13952
▁zede	-13953
▁ömrü	-13954
ahisar	-13955
ciliği	-13956
ichard	-13957
ihazır	-13958
lemeyi	-13959
sından	-13960
tenham	-13961
▁2012’	-13962
▁Akkuş	-13963
▁Dayan	-13964
▁Evrim	-13965
▁Fiyat	-13966
▁Garip	-13967
▁Giriş	-13968
▁Hakkı	-13969
▁Hatip	-13970
▁Köprü	-13971
▁Olayı	-13972
▁Olcay	-13973
▁Pamuk	-13974
▁Saint	-13975
▁Saran	-13976
▁Selin	-13977
▁Sezon	-13978
▁Tugay	-13979
▁Uysal	-13980
▁Yaman	-13981
▁Yoksa	-13982
▁Zeker	-13983
▁akışı	-13984
▁atmak	-13985
▁bulur	-13986
▁diyet	-13987
▁duman	-13988
▁düzel	-13989
▁eleme	-13990
▁erdir	-13991
▁gezeg	-13992
▁geçip	-13993
▁görgü	-13994
▁gözle	-13995
▁günah	-13996
▁hatip	-13997
▁hurda	-13998
▁makul	-13999
▁minik	-14000
▁molek	-14001
▁müjde	-14002
▁nitel	-14003
▁olama	-14004
▁onayı	-14005
▁reflü	-14006
▁rövan	-14007
▁senet	-14008
▁suçun	-14009
▁taviz	-14010
▁tıpkı	-14011
▁varil	-14012
▁vesil	-14013
▁yatay	-14014
▁yunus	-14015
▁Özerk	-14016
▁çevik	-14017
▁İdris	-14018
▁İzmit	-14019
▁Şeria	-14020
ememesi	-14021
etullah	-14022
eyeceği	-14023
miyoruz	-14024
mıyoruz	-14025
▁(21.45	-14026
▁Asgari	-14027
▁Dernek	-14028
▁Hatice	-14029
▁Kafkas	-14030
▁Mesela	-14031
▁Necdet	-14032
▁Olağan	-14033
▁Peşmer	-14034
▁Pompeo	-14035
▁Sönmez	-14036
▁Tarsus	-14037
▁adının	-14038
▁almadı	-14039
▁anlaya	-14040
▁atması	-14041
▁açarak	-14042
▁açılım	-14043
▁barışı	-14044
▁benden	-14045
▁bombar	-14046
▁davaya	-14047
▁defned	-14048
▁fezlek	-14049
▁gelmez	-14050
▁geçtik	-14051
▁gitmiş	-14052
▁imzalı	-14053
▁izleye	-14054
▁işyeri	-14055
▁kesimi	-14056
▁konsep	-14057
▁mesele	-14058
▁müthiş	-14059
▁obezit	-14060
▁onunla	-14061
▁ortağı	-14062
▁sansür	-14063
▁sekret	-14064
▁sermay	-14065
▁unsuru	-14066
▁yemeği	-14067
▁şeyden	-14068
Lacivert	-14069
ildiğine	-14070
itelikli	-14071
▁Ağaoğlu	-14072
▁Buradan	-14073
▁Cameron	-14074
▁Dergisi	-14075
▁Fethiye	-14076
▁Kararın	-14077
▁Letonya	-14078
▁Maltepe	-14079
▁Muhafız	-14080
▁Müşavir	-14081
▁Sebasti	-14082
▁Serbest	-14083
▁Thunder	-14084
▁anneler	-14085
▁aramaya	-14086
▁bıçakla	-14087
▁dağıldı	-14088
▁dostluk	-14089
▁dünyası	-14090
▁eserler	-14091
▁etmeyen	-14092
▁gürültü	-14093
▁haftaki	-14094
▁hayatın	-14095
▁işletim	-14096
▁kadroya	-14097
▁kansere	-14098
▁kaybede	-14099
▁kazayla	-14100
▁kentine	-14101
▁keyifli	-14102
▁kiralık	-14103
▁koyuyor	-14104
▁markası	-14105
▁negatif	-14106
▁okyanus	-14107
▁olmakta	-14108
▁oynadık	-14109
▁pompalı	-14110
▁sayılık	-14111
▁tehdidi	-14112
▁tutanak	-14113
▁varılan	-14114
▁vücudun	-14115
▁yapının	-14116
▁yargıla	-14117
▁çevirdi	-14118
▁şansını	-14119
ildikleri	-14120
ulmasının	-14121
▁Ambulans	-14122
▁Etkinlik	-14123
▁FaceTime	-14124
▁Hükümeti	-14125
▁Maalesef	-14126
▁Perinçek	-14127
▁Rüzgarın	-14128
▁Sağlıklı	-14129
▁Terörist	-14130
▁Tüketici	-14131
▁aralıklı	-14132
▁arkasına	-14133
▁cezaları	-14134
▁depolama	-14135
▁durumunu	-14136
▁ediyordu	-14137
▁emniyete	-14138
▁geleceğe	-14139
▁gelmiyor	-14140
▁güçlerin	-14141
▁harekatı	-14142
▁imkansız	-14143
▁işçileri	-14144
▁komutanı	-14145
▁liderlik	-14146
▁memleket	-14147
▁metrelik	-14148
▁mühimmat	-14149
▁olduktan	-14150
▁ortaokul	-14151
▁programa	-14152
▁seferini	-14153
▁sorununu	-14154
▁söylemiş	-14155
▁sözlerle	-14156
▁türlerin	-14157
▁unvanını	-14158
▁yoğunlaş	-14159
▁yöntemle	-14160
▁yıllarca	-14161
▁zanlılar	-14162
▁ödeyecek	-14163
▁üstlenen	-14164
▁Şemdinli	-14165
▁Hükümetin	-14166
▁Takımımız	-14167
▁Tottenham	-14168
▁almasının	-14169
▁amaçlıyor	-14170
▁başlarına	-14171
▁bilirkişi	-14172
▁bırakarak	-14173
▁detayları	-14174
▁dünyasına	-14175
▁evlerinde	-14176
▁görüşmeye	-14177
▁gösterisi	-14178
▁gözlerini	-14179
▁kaybettik	-14180
▁kaçırılan	-14181
▁konuların	-14182
▁memleketi	-14183
▁namazının	-14184
▁olimpiyat	-14185
▁projeleri	-14186
▁radyasyon	-14187
▁savunarak	-14188
▁sonuçlara	-14189
▁tepkisini	-14190
▁yazıyorum	-14191
▁yerindeki	-14192
▁ölümünden	-14193
▁önerileri	-14194
▁üstünlüğü	-14195
▁Bilgisayar	-14196
▁Parlamento	-14197
▁Volkswagen	-14198
▁alacakları	-14199
▁arkadaşlar	-14200
▁başlayarak	-14201
▁değiştirme	-14202
▁ekonominin	-14203
▁galibiyete	-14204
▁geliştirdi	-14205
▁girmesiyle	-14206
▁gösterecek	-14207
▁kurtarıldı	-14208
▁muhtemelen	-14209
▁toplanacak	-14210
▁yöntemiyle	-14211
▁yükselişle	-14212
▁çıkmasının	-14213
▁Politikalar	-14214
▁ayrıntıları	-14215
▁başlayacağı	-14216
▁bulunulduğu	-14217
▁bölgelerine	-14218
▁geliştirmek	-14219
▁gelmediğini	-14220
▁geçirdiğini	-14221
▁hastalıklar	-14222
▁kayıtlarını	-14223
▁kontrolünün	-14224
▁niteliğinde	-14225
▁referandumu	-14226
▁restorasyon	-14227
▁taleplerini	-14228
▁çalışacağız	-14229
▁çalışmasını	-14230
▁Mahkemesinde	-14231
▁anlaşmasının	-14232
▁düşünmüyorum	-14233
▁ekonomisinin	-14234
▁görüntülerde	-14235
▁gösterilerin	-14236
▁kapsamındaki	-14237
▁Eskişehirspor	-14238
▁karşılaşmanın	-14239
▁oluşturulması	-14240
▁organizasyonu	-14241
▁teröristlerce	-14242
▁öğrenilemeyen	-14243
▁değişiklikleri	-14244
.(	-14245
35	-14246
44	-14247
DO	-14248
EK	-14249
ld	-14250
-21	-14251
CHP	-14252
IST	-14253
Kal	-14254
Kap	-14255
Söz	-14256
TÜK	-14257
Yaş	-14258
ano	-14259
ble	-14260
dez	-14261
isk	-14262
jad	-14263
ody	-14264
rop	-14265
sor	-14266
use	-14267
çam	-14268
şir	-14269
▁(8	-14270
▁Eh	-14271
▁My	-14272
▁Si	-14273
▁TA	-14274
▁Zi	-14275
TÜRK	-14276
TÜİK	-14277
amaş	-14278
atar	-14279
atür	-14280
ecan	-14281
eraj	-14282
holm	-14283
iano	-14284
ilic	-14285
kins	-14286
loom	-14287
mith	-14288
ning	-14289
olar	-14290
onim	-14291
onna	-14292
opik	-14293
orld	-14294
otte	-14295
sche	-14296
taşı	-14297
zade	-14298
ülem	-14299
▁1.4	-14300
▁18'	-14301
▁23.	-14302
▁35'	-14303
▁4,5	-14304
▁70'	-14305
▁AVM	-14306
▁Ayı	-14307
▁BBP	-14308
▁Bet	-14309
▁Dim	-14310
▁Diş	-14311
▁EUR	-14312
▁Fak	-14313
▁Faz	-14314
▁Gor	-14315
▁Hük	-14316
▁Kep	-14317
▁Lar	-14318
▁Lid	-14319
▁Mik	-14320
▁Ona	-14321
▁Sov	-14322
▁Sus	-14323
▁TCK	-14324
▁Tüp	-14325
▁You	-14326
▁day	-14327
▁gev	-14328
▁hol	-14329
▁kül	-14330
▁ney	-14331
▁pap	-14332
▁ret	-14333
▁rüt	-14334
▁sof	-14335
▁sul	-14336
▁zul	-14337
▁çeş	-14338
▁çiğ	-14339
▁İBB	-14340
▁şan	-14341
.2017	-14342
amıza	-14343
ander	-14344
feder	-14345
ilmen	-14346
ision	-14347
iyeri	-14348
lesin	-14349
leyin	-14350
madık	-14351
mağan	-14352
meyle	-14353
otter	-14354
vanya	-14355
yikli	-14356
çının	-14357
ülten	-14358
▁(201	-14359
▁Aksu	-14360
▁Ağar	-14361
▁Baki	-14362
▁Bern	-14363
▁Dink	-14364
▁Eric	-14365
▁Kend	-14366
▁Köse	-14367
▁Leon	-14368
▁Meri	-14369
▁Mist	-14370
▁OHAL	-14371
▁Obez	-14372
▁Töre	-14373
▁Uşak	-14374
▁Yılı	-14375
▁arke	-14376
▁aşık	-14377
▁boya	-14378
▁emir	-14379
▁faul	-14380
▁fren	-14381
▁ilki	-14382
▁kale	-14383
▁kağı	-14384
▁kost	-14385
▁laik	-14386
▁omur	-14387
▁plaj	-14388
▁tiro	-14389
▁tura	-14390
▁Özal	-14391
▁çete	-14392
▁ısıt	-14393
elenen	-14394
etleme	-14395
gınlık	-14396
jektif	-14397
likler	-14398
mavili	-14399
raktör	-14400
rupalı	-14401
üsünde	-14402
ğimizi	-14403
▁2018’	-14404
▁Alber	-14405
▁Altuğ	-14406
▁Atlas	-14407
▁Aşırı	-14408
▁Cenaz	-14409
▁Darbe	-14410
▁Diyet	-14411
▁Harry	-14412
▁Juven	-14413
▁Kenya	-14414
▁Kevin	-14415
▁Konuk	-14416
▁Labor	-14417
▁Mimar	-14418
▁Nazım	-14419
▁Ondan	-14420
▁Sergi	-14421
▁Tunus	-14422
▁Uygur	-14423
▁Vedat	-14424
▁ayağa	-14425
▁ayırt	-14426
▁bazda	-14427
▁dergi	-14428
▁dizel	-14429
▁döktü	-14430
▁evrim	-14431
▁faili	-14432
▁gitme	-14433
▁hapse	-14434
▁iftar	-14435
▁kopar	-14436
▁kütüp	-14437
▁mekân	-14438
▁mühür	-14439
▁rengi	-14440
▁resep	-14441
▁satır	-14442
▁sağcı	-14443
▁süper	-14444
▁tadil	-14445
▁taşım	-14446
▁terfi	-14447
▁vakti	-14448
▁yendi	-14449
▁yürek	-14450
▁çanta	-14451
▁İlker	-14452
ahattin	-14453
altında	-14454
ansever	-14455
diyoruz	-14456
leriniz	-14457
▁Akıncı	-14458
▁Dinçer	-14459
▁Farklı	-14460
▁Ferhat	-14461
▁Güngör	-14462
▁Kanser	-14463
▁Kapısı	-14464
▁Marvel	-14465
▁Miller	-14466
▁Otobüs	-14467
▁Sözleş	-14468
▁Yalvaç	-14469
▁adresi	-14470
▁astron	-14471
▁averaj	-14472
▁azaltı	-14473
▁bahsed	-14474
▁defter	-14475
▁devrim	-14476
▁dönmek	-14477
▁düşmüş	-14478
▁farkla	-14479
▁garant	-14480
▁gücüne	-14481
▁hasara	-14482
▁iletiş	-14483
▁imzası	-14484
▁insana	-14485
▁katıla	-14486
▁konfor	-14487
▁manken	-14488
▁müştek	-14489
▁pratik	-14490
▁silahı	-14491
▁suçtan	-14492
▁suçunu	-14493
▁söyleş	-14494
▁teröre	-14495
▁yandaş	-14496
▁yasası	-14497
▁çağdaş	-14498
▁çıplak	-14499
Başbakan	-14500
Yenikapı	-14501
düksiyon	-14502
▁Babacan	-14503
▁Filipin	-14504
▁Sabancı	-14505
▁Sarıgül	-14506
▁adaylık	-14507
▁arazide	-14508
▁arttığı	-14509
▁baskını	-14510
▁benimle	-14511
▁beşinci	-14512
▁düşürdü	-14513
▁eklendi	-14514
▁etkiler	-14515
▁etkileş	-14516
▁etmekte	-14517
▁gelinen	-14518
▁götüren	-14519
▁hepsini	-14520
▁içeride	-14521
▁işlemek	-14522
▁kararda	-14523
▁kavuştu	-14524
▁kaybına	-14525
▁kitabın	-14526
▁koruyan	-14527
▁motorlu	-14528
▁mühendi	-14529
▁puandan	-14530
▁savaşçı	-14531
▁sloganı	-14532
▁sportif	-14533
▁takviye	-14534
▁tuttuğu	-14535
▁uymayan	-14536
▁uğrayan	-14537
▁yazıyor	-14538
▁yaşının	-14539
▁yılbaşı	-14540
▁Çeşitli	-14541
▁çağrıda	-14542
▁şiddeti	-14543
▁şüphesi	-14544
abilirler	-14545
doğusunda	-14546
karahisar	-14547
▁Bandırma	-14548
▁Bankalar	-14549
▁Emmanuel	-14550
▁Hareketi	-14551
▁Kilisesi	-14552
▁Slovakya	-14553
▁Stadyumu	-14554
▁aldıktan	-14555
▁aleyhine	-14556
▁antibiyo	-14557
▁borçları	-14558
▁bürokrat	-14559
▁depremin	-14560
▁değerini	-14561
▁durumlar	-14562
▁dışarıda	-14563
▁evrensel	-14564
▁fiyatını	-14565
▁getirdik	-14566
▁hafiflet	-14567
▁hissedar	-14568
▁ilgisini	-14569
▁izlediği	-14570
▁kalitesi	-14571
▁kanaması	-14572
▁oluşması	-14573
▁ordusuna	-14574
▁pazarlık	-14575
▁problemi	-14576
▁savcının	-14577
▁siteleri	-14578
▁süresini	-14579
▁sınavına	-14580
▁sınırını	-14581
▁talimatı	-14582
▁tarafsız	-14583
▁tepkiler	-14584
▁yaratmak	-14585
▁yerleşik	-14586
▁yıldızın	-14587
▁çarparak	-14588
ilmesinden	-14589
larımızdan	-14590
ılmasından	-14591
▁amaçlayan	-14592
▁anımsattı	-14593
▁artırmaya	-14594
▁başındaki	-14595
▁biriminin	-14596
▁birliğini	-14597
▁bozukluğu	-14598
▁bulunacak	-14599
▁desteklen	-14600
▁dönemdeki	-14601
▁etkiliyor	-14602
▁gelmiştir	-14603
▁geçmişten	-14604
▁görmezden	-14605
▁görüşerek	-14606
▁görüştüğü	-14607
▁haklarına	-14608
▁hastalara	-14609
▁istasyonu	-14610
▁istismarı	-14611
▁karakteri	-14612
▁kişilerce	-14613
▁konulması	-14614
▁kurulacak	-14615
▁maddeleri	-14616
▁mesajları	-14617
▁meslekten	-14618
▁ortamında	-14619
▁parçaları	-14620
▁planlıyor	-14621
▁ruhsatsız	-14622
▁sağlayıcı	-14623
▁sevdiğini	-14624
▁sigortalı	-14625
▁tutulduğu	-14626
▁verilerek	-14627
▁vermiştir	-14628
▁yaşanacak	-14629
▁çıkabilir	-14630
▁çıkaracak	-14631
▁önlenmesi	-14632
▁İstasyonu	-14633
Galatasaray	-14634
▁Abdulkadir	-14635
▁Milliyetçi	-14636
[...]
